<unk>	0
<s>	0
</s>	0
▁DC	-2.02272
SP	-2.47914
NL	-3.02788
_	-3.08953
.	-3.48271
(	-3.78211
,	-3.79449
▁	-3.8268
)	-4.18622
▁=	-4.27828
s	-4.37173
▁(	-4.56931
:	-4.5732
▁'	-4.80024
▁the	-4.98241
):	-4.99514
▁if	-5.01664
=	-5.07009
'	-5.17822
▁return	-5.31573
▁in	-5.38302
▁a	-5.49509
▁def	-5.5263
▁to	-5.62891
▁for	-5.63737
▁is	-5.63873
▁of	-5.73468
',	-5.7369
name	-5.83884
-	-5.89215
('	-5.96136
▁and	-6.01071
n	-6.11341
d	-6.11486
))	-6.11603
()	-6.13125
')	-6.141
▁:	-6.16719
[	-6.1892
.'	-6.21094
['	-6.29712
▁%	-6.30764
path	-6.32792
▁None	-6.33555
get	-6.33891
/	-6.34103
]	-6.3491
x	-6.38174
▁+	-6.38255
id	-6.41069
u	-6.43464
▁or	-6.47108
▁==	-6.50822
▁be	-6.51085
None	-6.51092
▁else	-6.52256
▁_	-6.55057
▁not	-6.55367
']	-6.55885
i	-6.56606
ed	-6.63317
':	-6.65543
\'	-6.65962
not	-6.67647
r	-6.69225
▁*	-6.69949
a	-6.70498
type	-6.71597
▁-	-6.72594
ing	-6.73092
t	-6.74412
▁with	-6.78819
2	-6.84524
▁\'	-6.84957
▁from	-6.87615
▁as	-6.87997
▁name	-6.88752
e	-6.89451
f	-6.8947
▁The	-6.90201
p	-6.91155
c	-6.92097
key	-6.92562
▁raise	-6.92643
data	-6.95883
1	-6.98329
`	-6.98595
file	-6.99307
▁that	-7.00782
▁list	-7.01981
='	-7.06249
param	-7.0666
▁value	-7.08116
),	-7.0854
value	-7.08603
format	-7.08954
list	-7.10081
▁data	-7.11204
b	-7.11554
▁``	-7.11577
▁[	-7.11793
▁>>>	-7.11924
y	-7.13919
▁get	-7.14698
▁`	-7.15196
k	-7.15209
S	-7.15231
▁try	-7.16201
\	-7.1729
g	-7.17752
▁x	-7.17852
▁an	-7.18549
▁except	-7.19792
to	-7.20641
▁string	-7.21943
▁True	-7.22405
▁((	-7.23149
▁@	-7.23886
▁file	-7.24009
er	-7.24018
args	-7.24622
"	-7.24996
)):	-7.25643
▁os	-7.25943
▁u	-7.26325
append	-7.27742
m	-7.28969
'):	-7.29649
``	-7.31479
▁are	-7.32095
len	-7.32274
▁f	-7.33314
▁False	-7.3389
True	-7.34301
elif	-7.34357
▁**	-7.34723
▁('	-7.35082
v	-7.35141
info	-7.36181
P	-7.36652
▁n	-7.37555
▁will	-7.39177
▁If	-7.3965
False	-7.39869
dict	-7.4039
▁"	-7.40876
▁path	-7.41041
▁function	-7.43229
▁ret	-7.44261
▁p	-7.44774
A	-7.44902
▁on	-7.46553
3	-7.47276
▁np	-7.48366
url	-7.49627
size	-7.49726
dir	-7.50144
▁A	-7.50366
is	-7.51759
▁key	-7.52257
▁assert	-7.52373
str	-7.52615
l	-7.52669
▁it	-7.52753
join	-7.52974
▁this	-7.53579
}	-7.54243
w	-7.54259
():	-7.54349
▁import	-7.54392
in	-7.54433
▁by	-7.55776
▁object	-7.55948
▁result	-7.56434
set	-7.56846
user	-7.57106
▁c	-7.58416
D	-7.58433
request	-7.58455
kwargs	-7.61849
)))	-7.6189
▁set	-7.62415
▁isinstance	-7.63223
▁user	-7.63627
▁s	-7.63674
▁new	-7.63791
string	-7.67314
▁default	-7.68063
])	-7.68366
▁<	-7.68827
h	-7.69366
*	-7.6972
▁str	-7.69811
▁[]	-7.70757
▁i	-7.70806
▁test	-7.71555
class	-7.71657
▁all	-7.72036
▁1	-7.72102
config	-7.72251
or	-7.72731
▁line	-7.74343
▁t	-7.75068
▁given	-7.75218
0	-7.75394
▁print	-7.7615
T	-7.76276
C	-7.76362
▁b	-7.77358
version	-7.77362
▁d	-7.7843
▁+=	-7.79631
▁int	-7.7992
▁/	-7.80248
line	-7.8034
▁request	-7.80361
split	-7.80471
▁module	-7.80837
[0]	-7.81239
\',	-7.82414
text	-7.82888
os	-7.83
▁use	-7.83252
▁!=	-7.83779
▁e	-7.83793
▁y	-7.83899
re	-7.85105
▁Returns	-7.85107
func	-7.85128
4	-7.85509
▁ValueError	-7.86397
▁used	-7.86721
Error	-7.87214
▁v	-7.87337
▁code	-7.88598
▁This	-7.88745
{	-7.89204
shape	-7.89536
▁r	-7.89783
B	-7.90055
▁..	-7.90939
▁re	-7.91268
time	-7.91386
▁0	-7.91472
▁dict	-7.91812
add	-7.91941
context	-7.92789
▁m	-7.92931
int	-7.93483
▁output	-7.93699
▁can	-7.95492
code	-7.96256
::	-7.9672
▁which	-7.97125
%	-7.97322
error	-7.97462
▁type	-7.9855
▁salt	-7.99024
result	-7.99136
group	-7.99307
default	-7.99368
▁{'	-7.99381
module	-7.99555
▁log	-8.00691
es	-8.01446
obj	-8.0185
▁1)	-8.02389
▁number	-8.02538
G	-8.02848
▁>	-8.03791
node	-8.04241
test	-8.05186
al	-8.05922
>	-8.0736
],	-8.07463
X	-8.08053
o	-8.08615
Return	-8.0958
from	-8.09641
(('	-8.09736
ly	-8.10158
block	-8.10258
:`	-8.10352
I	-8.1091
N	-8.10933
▁image	-8.11072
▁version	-8.11754
db	-8.11871
▁args	-8.12043
index	-8.12202
filename	-8.12789
▁out	-8.1349
z	-8.14099
▁instance	-8.1476
▁len	-8.14858
▁context	-8.1569
▁config	-8.16034
max	-8.16224
all	-8.16888
image	-8.17382
M	-8.17421
▁array	-8.17507
on	-8.18014
▁{}	-8.18169
py	-8.18512
▁values	-8.19235
▁text	-8.19238
▁must	-8.20117
;	-8.20395
▁time	-8.20784
▁response	-8.20809
▁should	-8.20865
L	-8.21103
start	-8.21275
app	-8.21384
'])	-8.2155
params	-8.21764
F	-8.2268
([	-8.22951
())	-8.23123
new	-8.23701
▁__	-8.24521
map	-8.25061
val	-8.25407
table	-8.25469
update	-8.25758
▁url	-8.25803
▁input	-8.25836
as	-8.2585
▁one	-8.25893
num	-8.26216
j	-8.26355
q	-8.27517
'))	-8.28721
▁no	-8.28876
E	-8.28947
arg	-8.28957
out	-8.2899
▁method	-8.29259
R	-8.29359
▁S	-8.29963
▁h	-8.30129
▁C	-8.31079
▁max	-8.31224
▁l	-8.31377
read	-8.3158
base	-8.31654
▁has	-8.32132
1,	-8.32155
5	-8.32166
▁range	-8.32325
▁k	-8.32804
end	-8.33269
host	-8.33427
filter	-8.33605
://	-8.33912
▁sys	-8.34468
state	-8.34513
▁|	-8.34703
▁node	-8.34882
field	-8.34921
▁check	-8.35011
▁error	-8.35058
▁only	-8.35079
np	-8.35176
model	-8.35278
log	-8.35503
▁current	-8.35929
'),	-8.36088
▁model	-8.36522
▁pass	-8.37386
Returns	-8.374
)]	-8.37406
match	-8.37413
item	-8.37608
▁kwargs	-8.3792
ion	-8.38041
▁w	-8.38634
▁tf	-8.39328
return	-8.39562
▁class	-8.40053
array	-8.40412
▁g	-8.40417
write	-8.40988
ip	-8.41378
sub	-8.41834
date	-8.42261
▁tuple	-8.42492
▁0):	-8.42697
▁format	-8.43175
cmd	-8.43271
'],	-8.43283
utils	-8.43578
▁specified	-8.43697
▁G	-8.43791
Get	-8.44389
▁0,	-8.4489
run	-8.4511
▁start	-8.45381
6	-8.45488
replace	-8.4575
msg	-8.45791
H	-8.45871
no	-8.46094
port	-8.46107
check	-8.46156
▁have	-8.47034
▁into	-8.47094
▁message	-8.47599
status	-8.47884
▁at	-8.48002
▁using	-8.48121
min	-8.48295
▁while	-8.48318
▁{	-8.48403
names	-8.4852
V	-8.48629
able	-8.49526
(*	-8.49614
▁filename	-8.49722
ation	-8.49746
ch	-8.49858
output	-8.4992
un	-8.50035
source	-8.50047
count	-8.50062
▁query	-8.50305
response	-8.50375
object	-8.50786
▁num	-8.51109
cache	-8.51126
comment	-8.51158
▁when	-8.51448
html	-8.51711
salt	-8.51859
▁host	-8.52085
▁match	-8.52259
for	-8.52783
Type	-8.5284
\')	-8.53119
message	-8.53438
root	-8.53451
Name	-8.53534
64	-8.53942
▁any	-8.53949
▁source	-8.54267
▁size	-8.54444
▁create	-8.54687
▁each	-8.54846
▁first	-8.55089
▁float	-8.55146
by	-8.555
▁continue	-8.55749
[1]	-8.56262
▁port	-8.56802
\\	-8.5689
options	-8.57117
query	-8.57419
▁Example	-8.57555
▁dictionary	-8.57806
__['	-8.58017
yield	-8.58017
input	-8.581
▁item	-8.58202
▁optional	-8.58317
method	-8.5863
▁base	-8.589
▁un	-8.58972
▁field	-8.59127
▁end	-8.59218
com	-8.59258
')):	-8.59695
▁argument	-8.60086
▁msg	-8.60127
▁target	-8.60431
▁sub	-8.61012
▁Args	-8.61335
.__	-8.6218
ic	-8.6228
opts	-8.62593
tag	-8.63014
items	-8.63207
▁found	-8.63304
parse	-8.63344
▁2	-8.63521
▁Parameters	-8.63641
mode	-8.63742
▁params	-8.64237
self	-8.64303
▁open	-8.64304
▁1,	-8.644
op	-8.64797
▁form	-8.65581
",	-8.65629
if	-8.66107
▁res	-8.66405
▁func	-8.66627
?	-8.66803
+	-8.66983
im	-8.67015
▁command	-8.67436
▁L	-8.67492
▁0)	-8.67554
en	-8.67933
float	-8.6797
▁add	-8.68071
▁options	-8.68108
W	-8.68212
keys	-8.68295
server	-8.68372
▁directory	-8.68432
▁app	-8.68438
instance	-8.68461
▁B	-8.68476
K	-8.68523
sys	-8.68532
▁files	-8.69202
▁you	-8.69784
strip	-8.69893
prefix	-8.70152
Y	-8.70188
[(	-8.70655
▁index	-8.71022
▁mode	-8.71206
debug	-8.71498
startswith	-8.71934
pos	-8.72028
lambda	-8.72098
▁returned	-8.72109
content	-8.72443
▁run	-8.72467
lower	-8.73043
▁shape	-8.732
create	-8.73546
values	-8.73643
client	-8.73939
label	-8.73943
lib	-8.74206
▁we	-8.74345
it	-8.74476
▁table	-8.74491
▁server	-8.74621
U	-8.74939
api	-8.75249
ref	-8.75323
▁then	-8.75765
json	-8.75834
▁CLI	-8.75873
▁read	-8.76128
▁arguments	-8.76275
token	-8.76345
doc	-8.76549
▁but	-8.76569
▁group	-8.77171
at	-8.77502
spec	-8.77937
target	-8.78046
▁template	-8.7839
8	-8.79111
▁client	-8.79424
File	-8.79726
▁where	-8.79784
▁bool	-8.79953
▁arg	-8.80243
▁parse	-8.80301
▁2)	-8.8075
▁obj	-8.8077
length	-8.81146
▁#	-8.81321
("	-8.81489
Test	-8.81816
().	-8.81868
▁profile	-8.82028
O	-8.82067
▁break	-8.82086
like	-8.82141
▁X	-8.8215
service	-8.82205
(\'	-8.82309
session	-8.82801
http	-8.82881
▁T	-8.83085
template	-8.83379
▁bash	-8.83451
32	-8.83661
▁content	-8.83707
▁names	-8.83733
ar	-8.83803
▁password	-8.84447
▁M	-8.8506
settings	-8.85373
profile	-8.85453
▁encoding	-8.85664
<	-8.85846
▁state	-8.85949
▁last	-8.86066
an	-8.86131
find	-8.86372
▁order	-8.86459
level	-8.86525
▁token	-8.86676
and	-8.86925
▁settings	-8.87099
▁dtype	-8.87176
▁1):	-8.87271
var	-8.87548
▁make	-8.87577
▁R	-8.87592
▁header	-8.87736
sum	-8.87802
▁cmd	-8.87858
▁--	-8.87906
▁q	-8.8816
▁\'*\'	-8.88597
|	-8.8867
conf	-8.88682
▁same	-8.88824
▁parser	-8.88888
▁do	-8.88912
▁does	-8.89231
number	-8.89356
(((	-8.89464
header	-8.8952
▁length	-8.89884
types	-8.8993
pop	-8.90665
▁logger	-8.9068
files	-8.90697
function	-8.9083
course	-8.91185
})	-8.91392
▁valid	-8.91557
idx	-8.91613
▁id	-8.91669
ent	-8.9179
▁db	-8.91819
load	-8.92003
(),	-8.92854
▁call	-8.93345
▁...	-8.93523
▁service	-8.93683
▁http	-8.93688
call	-8.93745
`.	-8.93861
delete	-8.93989
net	-8.94141
▁j	-8.94248
\':	-8.94668
form	-8.94801
bytes	-8.9487
row	-8.95156
2.	-8.9528
10	-8.95318
▁passed	-8.95375
password	-8.95381
▁N	-8.95455
fn	-8.95456
▁session	-8.95544
▁Python	-8.95564
2,	-8.95653
lines	-8.95806
▁was	-8.95956
▁3	-8.96046
▁URL	-8.96079
")	-8.96098
ID	-8.96364
dtype	-8.96416
▁K	-8.96419
▁filter	-8.9648
command	-8.96673
▁global	-8.9674
up	-8.9679
res	-8.97012
mod	-8.97191
event	-8.97633
encode	-8.9764
▁D	-8.97822
▁min	-8.97885
exists	-8.97933
title	-8.98116
encoding	-8.98213
▁up	-8.9822
src	-8.98267
▁course	-8.98278
▁info	-8.98363
range	-8.98404
random	-8.98492
▁parameter	-8.98583
Create	-8.98647
org	-8.98999
▁>=	-8.9903
▁other	-8.9906
order	-8.99693
raw	-8.99867
th	-9.00161
▁random	-9.00244
search	-9.00299
▁['	-9.00419
▁package	-9.00636
▁root	-9.00769
▁returns	-9.00878
with	-9.00919
of	-9.01077
▁may	-9.01464
▁cache	-9.01537
▁resource	-9.01919
first	-9.0193
fields	-9.02331
headers	-9.02497
exc	-9.03113
▁Exception	-9.03171
(0,	-9.03423
▁E	-9.03602
▁containing	-9.03655
▁results	-9.03742
▁load	-9.03957
▁self	-9.04018
▁H	-9.04026
▁graph	-9.04084
▁&	-9.04258
▁than	-9.04452
auth	-9.04461
st	-9.04615
▁count	-9.04744
▁more	-9.0479
local	-9.04891
2)	-9.04984
utf	-9.04998
▁z	-9.05011
The	-9.05033
close	-9.05139
link	-9.0534
▁axis	-9.05469
view	-9.05475
▁For	-9.05717
current	-9.05816
▁('%	-9.0582
▁hasattr	-9.06064
iter	-9.06091
Z	-9.06388
▁so	-9.06496
▁lines	-9.06641
Set	-9.06683
▁getattr	-9.06943
▁<=	-9.06984
▁find	-9.07117
le	-9.07164
▁integer	-9.07446
RE	-9.07491
ment	-9.0761
▁{0}	-9.0786
▁exception	-9.07879
address	-9.08033
Q	-9.08244
▁TypeError	-9.08255
equal	-9.08746
▁matrix	-9.08969
▁W	-9.0909
decode	-9.09121
parent	-9.09236
▁old	-9.09332
▁1))	-9.0954
▁two	-9.09593
▁label	-9.09794
▁date	-9.09848
TB	-9.10006
[(-1)]	-9.10146
▁parameters	-9.10211
▁action	-9.10336
▁local	-9.10532
environ	-9.10615
▁non	-9.10921
open	-9.10926
env	-9.11071
copy	-9.11109
xml	-9.11211
[0])	-9.11339
▁tag	-9.11399
▁variable	-9.11532
remove	-9.11803
task	-9.11856
resource	-9.1186
ret	-9.12048
▁F	-9.12119
▁provided	-9.12326
▁page	-9.12703
▁''	-9.13136
cls	-9.13263
old	-9.13274
**	-9.13362
▁status	-9.13496
init	-9.135
use	-9.1362
▁bytes	-9.14281
email	-9.14514
▁prefix	-9.14759
List	-9.14877
vars	-9.15118
▁unicode	-9.15228
attr	-9.15247
7	-9.15361
▁sequence	-9.1576
ra	-9.16009
el	-9.16161
▁It	-9.1619
▁connection	-9.1637
▁example	-9.1671
Re	-9.16794
▁val	-9.16951
▁headers	-9.1738
']['	-9.17401
▁objects	-9.17615
package	-9.17633
action	-9.1778
device	-9.17912
▁logging	-9.1797
▁keys	-9.18074
page	-9.18116
ro	-9.18618
▁See	-9.18713
(1)	-9.1908
▁search	-9.19111
save	-9.19131
▁update	-9.19195
width	-9.19438
▁tensor	-9.19444
▁datetime	-9.19483
stream	-9.19759
project	-9.20005
▁conn	-9.20205
objects	-9.2027
ize	-9.20346
▁err	-9.20446
batch	-9.20599
)),	-9.2078
▁case	-9.20912
1)	-9.20955
▁single	-9.20997
▁errors	-9.21034
▁available	-9.21069
site	-9.21262
bar	-9.21267
▁event	-9.21286
▁\	-9.21334
▁block	-9.21743
Check	-9.2188
train	-9.21992
▁exc	-9.22186
▁information	-9.2238
▁address	-9.22385
username	-9.22678
color	-9.2271
extend	-9.22725
▁2,	-9.22785
▁raw	-9.22805
dev	-9.23106
last	-9.23129
meta	-9.23309
``.	-9.23442
ids	-9.23442
domain	-9.236
option	-9.23645
[:,	-9.23664
body	-9.237
stdout	-9.237
est	-9.23764
datetime	-9.23866
▁Examples	-9.23944
▁extra	-9.23971
[:	-9.24125
tf	-9.24188
store	-9.24193
limit	-9.24209
mask	-9.24402
▁task	-9.24695
▁build	-9.2491
true	-9.24935
▁attribute	-9.25128
▁device	-9.25165
sort	-9.25228
▁its	-9.25569
seq	-9.25573
9	-9.25626
▁row	-9.25733
▁system	-9.25746
▁python	-9.25956
▁next	-9.25986
▁I	-9.2603
▁help	-9.26101
▁after	-9.26205
python	-9.26402
▁network	-9.26676
▁numpy	-9.26916
▁color	-9.27003
expr	-9.27293
▁also	-9.27417
one	-9.27441
il	-9.27518
[0],	-9.27586
hash	-9.2759
▁element	-9.27661
unicode	-9.27778
▁4	-9.27933
▁'\	-9.28015
per	-9.28094
))):	-9.28219
▁del	-9.28643
graph	-9.28695
▁region	-9.28873
Path	-9.28929
import	-9.29206
▁between	-9.29297
▁limit	-9.29302
Key	-9.29342
▁expected	-9.29345
▁called	-9.29766
.')	-9.29801
scope	-9.29931
axis	-9.30212
▁strings	-9.30295
build	-9.30321
▁copy	-9.30356
location	-9.30669
de	-9.31005
ter	-9.31072
▁'')	-9.31087
#	-9.3109
▁full	-9.31362
▁An	-9.31422
connection	-9.31833
▁'%	-9.32179
="	-9.32431
offset	-9.32447
platform	-9.32612
▁parent	-9.32801
ate	-9.3284
has	-9.32965
rtype	-9.32988
system	-9.33023
▁process	-9.33112
▁script	-9.33261
▁stream	-9.33419
▁sorted	-9.33537
▁width	-9.33593
▁fields	-9.33706
].	-9.33728
▁configuration	-9.33874
ive	-9.3395
col	-9.33973
▁de	-9.34012
script	-9.34093
register	-9.34136
foo	-9.34146
▁ip	-9.34368
▁scope	-9.34432
!	-9.34491
▁required	-9.34634
scale	-9.34712
▁json	-9.34714
▁nodes	-9.34717
▁timeout	-9.34724
the	-9.34927
]))	-9.34957
addr	-9.35005
=\'	-9.3512
▁project	-9.35229
diff	-9.35316
▁record	-9.35384
▁include	-9.35555
▁already	-9.35595
▁sympy	-9.35754
io	-9.3584
▁level	-9.35924
▁instead	-9.36161
tree	-9.36188
▁batch	-9.36483
next	-9.3667
▁whether	-9.36912
record	-9.36919
safe	-9.37045
▁body	-9.37063
am	-9.3711
exception	-9.37345
step	-9.37403
et	-9.37547
▁view	-9.37668
pi	-9.37987
tuple	-9.38086
▁before	-9.38161
only	-9.38307
▁true	-9.3836
timeout	-9.38388
▁ID	-9.38507
conv	-9.38593
li	-9.38934
uri	-9.39222
▁labels	-9.39399
No	-9.39615
Id	-9.39618
mean	-9.39699
(0)	-9.39787
labels	-9.39867
dot	-9.40073
Exception	-9.40089
▁show	-9.40427
changes	-9.40551
)])	-9.40608
fname	-9.40759
err	-9.40847
▁socket	-9.40884
fs	-9.4092
cloud	-9.40957
parser	-9.40999
print	-9.41371
inputs	-9.41388
▁domain	-9.41612
0.0	-9.41778
▁created	-9.41951
▁over	-9.42095
▁3)	-9.4222
('\	-9.42224
stderr	-9.42303
day	-9.42453
required	-9.42842
modules	-9.42934
▁hash	-9.43039
▁convert	-9.43166
pkg	-9.43195
▁env	-9.43373
install	-9.43511
▁enumerate	-9.43521
cert	-9.43613
region	-9.43644
um	-9.43881
▁remove	-9.43948
▁write	-9.44189
proxy	-9.44292
Index	-9.44528
[2]	-9.44831
NAME	-9.44901
▁opts	-9.44947
▁entry	-9.45004
▁'--	-9.45055
1.	-9.45129
▁like	-9.45156
▁In	-9.45207
bin	-9.45381
post	-9.45452
▁username	-9.45503
access	-9.45555
section	-9.45773
▁document	-9.45806
▁py	-9.45964
16	-9.46084
classes	-9.46255
▁some	-9.46261
part	-9.46281
▁(((	-9.46389
dist	-9.4639
``,	-9.46456
pool	-9.46576
▁point	-9.46683
(1,	-9.46807
style	-9.46905
▁items	-9.46906
show	-9.4695
▁verbose	-9.46976
▁access	-9.47115
))))	-9.47219
▁six	-9.4722
J	-9.47224
▁0.0	-9.47304
Convert	-9.47366
▁empty	-9.47613
To	-9.47645
char	-9.47685
▁auth	-9.47693
▁either	-9.47728
▁pre	-9.47775
▁tree	-9.47912
▁1),	-9.48279
exit	-9.48399
stack	-9.4842
▁pos	-9.48435
bool	-9.48465
▁offset	-9.48474
▁there	-9.48595
▁option	-9.48613
Value	-9.48644
▁force	-9.48656
▁render	-9.49037
ul	-9.49206
▁been	-9.49225
weight	-9.49528
do	-9.49648
vm	-9.4984
=0,	-9.49843
head	-9.49945
▁variables	-9.50067
▁email	-9.50097
(**	-9.50118
"'	-9.50165
math	-9.50224
pb	-9.50399
frame	-9.50447
handler	-9.50582
▁doc	-9.50762
mat	-9.50813
endswith	-9.50971
▁op	-9.50973
▁cls	-9.50976
compile	-9.5107
▁types	-9.51173
entry	-9.51452
▁main	-9.51479
ER	-9.51507
0,	-9.51536
String	-9.51544
▁keyword	-9.51586
▁pkg	-9.51587
▁10	-9.51665
▁split	-9.51765
exp	-9.52007
ms	-9.52017
abs	-9.52047
make	-9.52101
▁net	-9.52111
In	-9.52159
User	-9.52227
▁exist	-9.52615
samples	-9.52615
▁mapping	-9.52671
def	-9.52734
▁ax	-9.52824
▁exists	-9.52827
=[	-9.5312
IN	-9.53186
ial	-9.53355
▁part	-9.53456
▁zip	-9.535
▁otherwise	-9.53745
▁namespace	-9.5383
▁Note	-9.53909
co	-9.54071
▁var	-9.54132
ext	-9.54186
▁database	-9.54204
▁delete	-9.54251
▁dataset	-9.543
admin	-9.54303
network	-9.54348
norm	-9.54417
[0].	-9.54557
kw	-9.54587
uuid	-9.546
lock	-9.54657
▁interface	-9.54698
'].	-9.54879
This	-9.54896
scheme	-9.55042
groups	-9.55231
rate	-9.55488
win	-9.55607
5,	-9.55864
ver	-9.5594
POST	-9.55963
▁parts	-9.55986
repo	-9.56003
layer	-9.56073
▁decorator	-9.56096
▁thread	-9.56194
tags	-9.56313
▁allow	-9.56417
▁->	-9.56454
('--	-9.56536
Add	-9.56675
Request	-9.56807
@	-9.56955
pre	-9.56995
De	-9.57016
▁want	-9.57107
ec	-9.57122
document	-9.57126
parts	-9.57172
pattern	-9.57196
▁generate	-9.5726
ity	-9.57324
▁comment	-9.57406
ap	-9.57425
(('%	-9.57434
▁dest	-9.57442
valid	-9.57467
Invalid	-9.57471
full	-9.57505
▁supported	-9.57599
core	-9.57618
red	-9.57665
locale	-9.57746
ut	-9.57917
queue	-9.57955
errors	-9.57982
req	-9.57998
▁expression	-9.58082
-1	-9.58229
▁location	-9.5823
▁my	-9.58349
'](	-9.58938
left	-9.5908
conn	-9.5914
socket	-9.59153
▁contains	-9.59266
escape	-9.59383
▁HTTP	-9.59519
Data	-9.5955
long	-9.59564
matrix	-9.59917
argument	-9.5995
zeros	-9.60051
▁volume	-9.60066
▁mask	-9.60328
▁callable	-9.6035
▁paths	-9.60379
▁map	-9.60616
▁link	-9.60653
language	-9.61251
GET	-9.6126
▁pattern	-9.61272
process	-9.61453
handle	-9.6146
']:	-9.61919
sep	-9.62116
▁src	-9.62203
▁original	-9.62304
tion	-9.62308
ant	-9.62317
warning	-9.62473
year	-9.62504
▁5	-9.62542
Parse	-9.62714
ol	-9.62786
▁1)]	-9.62831
3.	-9.6284
description	-9.62866
my	-9.63083
▁based	-9.63115
extra	-9.63133
},	-9.63229
▁[(	-9.63313
ify	-9.63359
▁running	-9.63414
▁following	-9.63464
▁ndarray	-9.63488
▁flags	-9.63611
pass	-9.63617
▁sort	-9.63622
models	-9.63626
▁attr	-9.63632
▁conf	-9.63734
▁handle	-9.63862
[1])	-9.63893
▁tests	-9.63967
▁container	-9.64017
▁spec	-9.64092
age	-9.64104
pack	-9.64206
▁title	-9.64262
▁vm	-9.64492
word	-9.64619
▁see	-9.64719
tr	-9.64735
`,	-9.64744
ST	-9.64823
\']	-9.64894
space	-9.6508
PATH	-9.6509
▁im	-9.65185
▁V	-9.65271
▁ignore	-9.65335
▁total	-9.65392
namespace	-9.65417
▁byte	-9.65532
URL	-9.6556
returns	-9.65659
ers	-9.65694
ad	-9.65765
zone	-9.65833
nodes	-9.65849
auto	-9.65897
me	-9.65982
▁handler	-9.66172
▁plt	-9.6632
▁characters	-9.66359
▁versionadded	-9.66421
login	-9.66433
plot	-9.665
▁1.	-9.66518
AR	-9.66793
txt	-9.66823
ies	-9.66873
dirname	-9.66897
▁Raises	-9.66928
▁different	-9.66996
opt	-9.67055
▁O	-9.6729
▁such	-9.67309
mo	-9.67379
▁environment	-9.67627
include	-9.67634
us	-9.67668
flags	-9.67763
OR	-9.67782
ct	-9.67943
mi	-9.6799
element	-9.68106
][	-9.68199
release	-9.68279
▁compute	-9.68383
verbose	-9.68393
":	-9.68399
ca	-9.68418
Response	-9.68555
be	-9.68626
▁application	-9.68655
▁installed	-9.68678
metadata	-9.68784
▁defined	-9.68934
({'	-9.68946
sample	-9.68964
▁warnings	-9.68983
▁per	-9.69024
▁description	-9.69116
hostname	-9.69122
▁KeyError	-9.69161
▁%}	-9.69206
Node	-9.69264
fd	-9.69275
features	-9.69386
argv	-9.6944
▁redirect	-9.69452
▁mod	-9.69483
tmp	-9.69512
back	-9.69565
▁multiple	-9.6958
▁3,	-9.69767
</	-9.6986
▁column	-9.69871
pk	-9.69923
▁failed	-9.70036
CONF	-9.70094
git	-9.70137
right	-9.70258
util	-9.70279
▁Optional	-9.70318
▁Q	-9.70335
▁post	-9.70526
ab	-9.70612
bits	-9.70702
ED	-9.70838
total	-9.70866
▁ch	-9.71005
ur	-9.71043
▁col	-9.7123
case	-9.7128
▁step	-9.71285
']):	-9.71325
ce	-9.7151
▁bits	-9.71525
ndim	-9.71554
▁metadata	-9.7161
points	-9.71627
▁reference	-9.71716
▁sum	-9.71782
▁api	-9.71823
▁present	-9.71876
▁wrapper	-9.71881
▁backend	-9.71984
active	-9.72013
gen	-9.72237
▁AttributeError	-9.72385
[1:]	-9.72388
▁filters	-9.7268
▁right	-9.72699
box	-9.7294
▁finally	-9.72988
raises	-9.73048
▁API	-9.73113
▁scale	-9.73126
AL	-9.73172
point	-9.73551
connect	-9.73587
directory	-9.73735
▁[0,	-9.73808
▁fn	-9.73815
la	-9.73823
12	-9.74069
ty	-9.74119
warn	-9.74186
tensor	-9.74285
rc	-9.74348
▁o	-9.74359
▁auto	-9.74627
▁Default	-9.7467
▁layer	-9.74935
example	-9.74953
▁word	-9.75134
ascii	-9.7515
images	-9.75155
fail	-9.75181
▁platform	-9.75266
shell	-9.75317
zip	-9.75419
▁need	-9.75422
ignore	-9.7544
con	-9.7553
▁algorithm	-9.75558
▁site	-9.75625
Run	-9.75651
▁tags	-9.75664
se	-9.75695
▁safe	-9.75969
▁elements	-9.76034
em	-9.76047
▁section	-9.76216
▁sample	-9.76306
▁dir	-9.76369
4,	-9.76594
Given	-9.76602
▁second	-9.76711
▁Return	-9.76752
DE	-9.76857
job	-9.76877
results	-9.7699
ator	-9.76996
'"	-9.77058
img	-9.77091
mp	-9.77227
▁both	-9.77228
volume	-9.7726
freq	-9.77333
Generate	-9.77456
stat	-9.77556
MA	-9.77558
backend	-9.77593
callback	-9.7767
▁corresponding	-9.77728
optional	-9.77785
".	-9.77809
account	-9.78014
▁they	-9.78062
▁keyid	-9.78186
▁cluster	-9.78207
=%	-9.78285
▁win	-9.78325
1.0	-9.7859
▁display	-9.78639
Un	-9.78786
timestamp	-9.78805
▁Re	-9.78823
▁parsed	-9.78825
dataset	-9.78924
▁report	-9.78926
Service	-9.79017
▁window	-9.79039
▁HttpResponse	-9.79231
Client	-9.79448
▁save	-9.79471
df	-9.79628
▁install	-9.7967
secret	-9.79706
sequence	-9.79738
tools	-9.79789
main	-9.79893
>'	-9.79942
media	-9.8003
▁8	-9.8013
ON	-9.80151
isinstance	-9.80269
▁weight	-9.80292
ok	-9.80309
▁2):	-9.80375
▁attributes	-9.80376
▁weights	-9.80416
)}	-9.80497
grad	-9.80498
▁existing	-9.80668
mul	-9.80875
▁your	-9.80992
▁being	-9.8107
()))	-9.81071
▁fp	-9.81087
20	-9.81112
Version	-9.81214
▁locale	-9.81236
&	-9.81243
▁J	-9.81251
DB	-9.81271
select	-9.81477
score	-9.81483
interface	-9.81654
▁send	-9.81677
quote	-9.81696
LE	-9.81815
paths	-9.81893
▁wait	-9.81901
▁defaults	-9.81917
:%	-9.82047
empty	-9.82052
▁account	-9.82075
lo	-9.82106
stats	-9.82139
▁encoded	-9.82201
^	-9.82225
▁debug	-9.82258
▁skip	-9.82414
▁2.	-9.8247
ance	-9.82547
policy	-9.82561
▁loop	-9.82572
manager	-9.82662
Failed	-9.82663
Field	-9.8274
▁long	-9.82747
▁matches	-9.82778
unit	-9.82928
loop	-9.82933
▁Salt	-9.82935
=1)	-9.82955
▁frame	-9.83025
height	-9.83069
▁language	-9.83108
▁boolean	-9.83119
bit	-9.83132
role	-9.83138
thread	-9.83158
ax	-9.83245
ex	-9.83374
▁seconds	-9.83382
▁{%	-9.835
]]	-9.83509
▁xml	-9.83573
changed	-9.83737
nn	-9.83751
{}'.	-9.84056
▁{})	-9.84084
▁'-	-9.84137
▁binary	-9.84155
']))	-9.84259
▁multi	-9.84306
yaml	-9.84328
upper	-9.84353
ind	-9.84394
▁//	-9.84489
▁stack	-9.84533
▁0.	-9.84601
iteritems	-9.84606
ma	-9.84693
▁generator	-9.84696
▁cannot	-9.84758
child	-9.84798
01	-9.84848
▁relative	-9.85026
▁contain	-9.85165
stop	-9.85227
▁frappe	-9.8527
▁cookie	-9.85366
nt	-9.85378
▁images	-9.85423
Connection	-9.85451
using	-9.85459
execute	-9.85748
application	-9.85792
ig	-9.85908
80	-9.85979
('/	-9.85984
From	-9.86144
slice	-9.86146
lt	-9.86168
mark	-9.86203
▁XML	-9.86222
Text	-9.8627
▁(1	-9.86329
▁ctypes	-9.86383
▁zone	-9.86462
Ex	-9.86529
cs	-9.86611
▁height	-9.86648
▁chunk	-9.86658
▁[])	-9.86685
ac	-9.86919
▁standard	-9.86939
▁train	-9.87148
rows	-9.87199
render	-9.87328
▁Notes	-9.87334
▁them	-9.87713
sqrt	-9.87917
▁setup	-9.88004
Class	-9.8808
24	-9.8819
ay	-9.88353
Object	-9.88355
ob	-9.88387
▁points	-9.88477
▁removed	-9.88645
▁job	-9.88719
▁zero	-9.88797
▁top	-9.89097
Log	-9.89106
00	-9.89248
ff	-9.89398
▁alpha	-9.89428
temp	-9.8958
▁child	-9.89955
ssl	-9.89957
DIR	-9.89966
▁cur	-9.90042
ri	-9.9006
Read	-9.90162
▁work	-9.90345
Config	-9.90346
▁possible	-9.90348
▁doesn	-9.90401
▁df	-9.90417
▁common	-9.90476
send	-9.90485
▁req	-9.90828
collection	-9.9093
▁Name	-9.9096
dim	-9.9099
patch	-9.91033
▁2))	-9.91233
▁apply	-9.91431
Make	-9.91451
▁ext	-9.91478
buffer	-9.91528
cookie	-9.91636
▁JSON	-9.91712
▁cert	-9.91767
▁repository	-9.91906
▁exp	-9.9194
-8')	-9.9197
▁named	-9.92192
▁rv	-9.9225
▁release	-9.92334
▁support	-9.92469
▁plot	-9.92526
▁stop	-9.92585
ast	-9.92601
▁changed	-9.92602
▁now	-9.92617
ization	-9.9267
{}	-9.92716
▁indent	-9.9272
ring	-9.92726
www	-9.92817
Info	-9.92833
hook	-9.92931
).'	-9.9304
▁{0}'	-9.93109
=1,	-9.93124
children	-9.93157
'}	-9.93172
wait	-9.93214
▁kernel	-9.93239
HTTP	-9.93281
**2	-9.93439
metric	-9.9347
low	-9.93531
TYPE	-9.9359
▁style	-9.93646
pt	-9.93724
▁{\'	-9.93746
variable	-9.93753
▁callback	-9.93806
rs	-9.93814
EN	-9.93855
master	-9.93876
rb	-9.93915
▁Arguments	-9.93933
▁img	-9.94013
convert	-9.94073
▁just	-9.9411
▁"%	-9.94262
▁6	-9.94291
lang	-9.94447
▁signal	-9.94487
now	-9.94491
Find	-9.94514
-%	-9.94529
ence	-9.94531
▁boto	-9.94543
act	-9.94566
▁expr	-9.946
https	-9.94631
▁without	-9.94665
public	-9.94758
ill	-9.95005
ha	-9.95075
▁rows	-9.95104
cluster	-9.95121
]['	-9.95309
▁functions	-9.95331
▁invalid	-9.95332
▁exclude	-9.95334
folder	-9.95366
oo	-9.95464
Remove	-9.95536
ir	-9.95572
top	-9.9558
po	-9.95588
uid	-9.95605
Build	-9.95764
▁(-1)	-9.95773
subject	-9.95802
▁topic	-9.95825
▁remote	-9.95827
▁added	-9.95966
sql	-9.96114
▁stdout	-9.96229
loader	-9.96287
reshape	-9.96311
▁change	-9.96328
ING	-9.96353
▁character	-9.96363
IC	-9.96435
▁keep	-9.96537
dirs	-9.96578
▁certificate	-9.96673
▁ImportError	-9.96745
Point	-9.9692
man	-9.96944
tz	-9.96995
▁entity	-9.97051
commit	-9.97208
▁custom	-9.97221
▁Use	-9.97263
can	-9.97314
{0}'.	-9.97407
IS	-9.97422
▁feature	-9.9753
seconds	-9.97545
>`	-9.97582
▁distribution	-9.97595
▁setting	-9.97629
ps	-9.97697
▁flag	-9.97698
Module	-9.97843
ary	-9.97848
OS	-9.97899
▁back	-9.9791
factor	-9.97932
▁their	-9.97993
ci	-9.981
display	-9.98149
over	-9.98198
▁xrange	-9.9827
(("	-9.98356
▁left	-9.98442
▁html	-9.98479
▁store	-9.98512
ValueError	-9.98694
retcode	-9.98719
real	-9.98771
▁contents	-9.98863
▁vector	-9.98884
▁4)	-9.98958
pid	-9.98959
skip	-9.98964
▁To	-9.99067
rec	-9.9913
▁rel	-9.99143
▁Y	-9.99222
▁iterable	-9.99226
he	-9.99383
▁could	-9.99419
provider	-9.9945
ni	-9.99496
loc	-9.99523
▁[1,	-9.996
[1],	-9.99656
pr	-9.99729
▁unit	-9.99777
ized	-9.998
delta	-9.99989
DEFAULT	-9.99999
ne	-10.0002
▁20	-10.0014
cfg	-10.002
transform	-10.0023
cur	-10.0035
owner	-10.0044
multi	-10.0045
nan	-10.005
▁space	-10.0056
desc	-10.0067
depth	-10.0068
▁representation	-10.0069
rule	-10.007
▁1.0	-10.0089
rel	-10.0092
mapping	-10.0097
sym	-10.0103
global	-10.0125
▁position	-10.013
▁7	-10.0139
\''	-10.0147
{1}'.	-10.0148
summary	-10.0149
=0)	-10.0151
ES	-10.0154
/%	-10.0159
▁equal	-10.0166
ine	-10.0169
▁tmp	-10.017
▁columns	-10.0171
Content	-10.0172
ts	-10.0172
▁9	-10.0177
arr	-10.0186
▁representing	-10.0191
window	-10.0193
▁edge	-10.0195
filters	-10.0196
▁missing	-10.0208
Handler	-10.0217
▁mean	-10.0223
alpha	-10.0233
▁allowed	-10.0246
18	-10.0252
▁methods	-10.0268
validate	-10.0271
xe	-10.0279
Form	-10.0282
▁short	-10.0284
kind	-10.0286
▁IOError	-10.0288
▁clean	-10.0295
home	-10.0302
▁yaml	-10.0303
Load	-10.0312
('\\	-10.0314
▁collection	-10.0315
▁connect	-10.0322
▁IP	-10.0323
ev	-10.0331
insert	-10.0335
click	-10.0341
Model	-10.0355
▁validate	-10.0356
▁LOG	-10.0362
▁would	-10.0363
TR	-10.0365
▁real	-10.0376
logging	-10.0386
▁Also	-10.0386
▁maximum	-10.0393
disk	-10.0398
cast	-10.0402
feature	-10.0411
▁reverse	-10.0418
trans	-10.0428
ical	-10.0437
▁disk	-10.044
▁false	-10.0446
cr	-10.045
▁st	-10.0451
Update	-10.0454
▁requests	-10.0459
month	-10.0461
▁1)):	-10.0462
registry	-10.0466
SE	-10.0468
ns	-10.0475
▁seq	-10.0484
▁iter	-10.0486
[:(-1)]	-10.0486
)[0]	-10.0491
▁unique	-10.0506
▁pairs	-10.0514
▁simple	-10.0518
boxes	-10.052
alias	-10.0521
ating	-10.0526
▁operation	-10.0529
▁media	-10.0534
▁init	-10.0552
ho	-10.0558
tests	-10.0558
column	-10.0567
('.')	-10.0569
numpy	-10.0569
▁within	-10.0575
▁ctx	-10.0583
words	-10.0595
'][	-10.0595
▁mark	-10.0597
Warning	-10.06
Group	-10.0605
▁slice	-10.0607
▁extract	-10.0607
▁storage	-10.061
br	-10.0611
▁Template	-10.0625
links	-10.0629
md	-10.0631
oc	-10.0651
reference	-10.0666
▁specific	-10.0667
channels	-10.0667
▁web	-10.0676
▁iterator	-10.068
author	-10.0685
setup	-10.0685
indices	-10.0687
2.0	-10.0692
choice	-10.0695
}}	-10.0697
11	-10.0698
('<	-10.0698
ie	-10.0703
tool	-10.0705
reverse	-10.0706
▁protocol	-10.0707
'%	-10.0714
▁download	-10.0716
encrypt	-10.0723
Dict	-10.0724
Table	-10.0727
storage	-10.0728
▁subject	-10.0734
▁correct	-10.074
▁generated	-10.074
container	-10.0741
▁List	-10.0759
▁fail	-10.0762
()):	-10.0763
0.1	-10.0764
logger	-10.0765
enabled	-10.0766
nd	-10.0767
slug	-10.077
▁repo	-10.0774
▁meta	-10.0774
▁extension	-10.0776
▁OSError	-10.0781
▁matching	-10.0792
IP	-10.0792
▁pool	-10.0797
schema	-10.0799
For	-10.0799
▁git	-10.0811
dt	-10.0816
0)	-10.0824
▁inputs	-10.0833
▁about	-10.0837
▁classes	-10.0842
▁sym	-10.0856
cl	-10.0876
ting	-10.0881
ll	-10.0883
fit	-10.0889
PY	-10.0891
Function	-10.0895
download	-10.0902
▁stderr	-10.0909
pe	-10.0919
Compute	-10.0929
cc	-10.093
▁proxy	-10.0942
loss	-10.0944
▁temp	-10.0967
pytest	-10.0971
let	-10.0972
▁details	-10.0972
buf	-10.0982
Delete	-10.0984
ice	-10.1005
UN	-10.1016
▁don	-10.1029
eg	-10.1031
chunk	-10.1031
▁dist	-10.1043
Do	-10.1048
▁queue	-10.1056
sp	-10.1066
predict	-10.1073
isdir	-10.1074
▁changes	-10.1078
▁stats	-10.1079
▁these	-10.1079
▁messages	-10.1081
'\	-10.1081
og	-10.1084
('%	-10.1088
fun	-10.1093
▁role	-10.1094
▁HTML	-10.1095
▁words	-10.1097
zero	-10.1101
sh	-10.1109
▁lib	-10.1113
▁IPv	-10.1113
factory	-10.1113
Helper	-10.1117
vert	-10.1124
AT	-10.1127
KEY	-10.1127
div	-10.1139
▁takes	-10.1141
prop	-10.1164
▁patch	-10.1165
▁initial	-10.118
▁opt	-10.1182
30	-10.1185
etc	-10.1192
sign	-10.1198
▁mo	-10.1204
reg	-10.1209
trace	-10.1211
cli	-10.1215
RA	-10.1216
ta	-10.1221
▁rule	-10.1226
ry	-10.1227
Not	-10.1228
times	-10.1228
▁depth	-10.1232
('-	-10.1234
route	-10.1252
ian	-10.1264
▁(-1))	-10.1265
▁events	-10.1272
▁absolute	-10.1281
this	-10.1285
properties	-10.1287
blob	-10.1299
3,	-10.1303
cap	-10.1304
▁plugin	-10.1309
Filter	-10.1316
om	-10.1318
▁When	-10.1328
generate	-10.1331
CONFIG	-10.1335
15	-10.1336
(2)	-10.1336
▁month	-10.1338
▁ref	-10.1341
rand	-10.1345
where	-10.1346
eq	-10.1346
▁channel	-10.1356
eval	-10.1367
position	-10.137
tab	-10.1375
▁admin	-10.1379
targets	-10.1401
0.5	-10.1406
wrap	-10.1411
▁actual	-10.1417
('/')	-10.1419
Query	-10.142
force	-10.1423
ness	-10.1431
=1	-10.1432
Start	-10.1433
▁User	-10.1437
OP	-10.1441
book	-10.1441
▁done	-10.1449
▁minion	-10.1467
events	-10.1471
expected	-10.1475
binary	-10.149
[3]	-10.149
▁quote	-10.1497
▁tokens	-10.1513
▁select	-10.1514
▁You	-10.1515
▁ignored	-10.1519
▁nx	-10.152
▁property	-10.1524
▁modules	-10.1525
▁sock	-10.1529
200	-10.153
django	-10.1546
▁kind	-10.1556
private	-10.1559
▁uses	-10.156
regex	-10.1571
▁>>	-10.1572
created	-10.1578
▁math	-10.159
success	-10.1594
▁indices	-10.1594
▁lock	-10.1596
▁through	-10.1601
rt	-10.1604
▁buffer	-10.1614
ally	-10.1622
={'	-10.1637
parameters	-10.1637
▁replace	-10.164
par	-10.1644
▁via	-10.1646
▁under	-10.1649
▁datastore	-10.1652
Time	-10.1656
▁Command	-10.1662
usage	-10.1664
asarray	-10.1675
▁sign	-10.168
other	-10.1697
remote	-10.1708
ear	-10.1709
▁usage	-10.1712
▁score	-10.1713
▁success	-10.1714
Process	-10.1716
google	-10.1716
abc	-10.172
elem	-10.1722
ee	-10.1722
strict	-10.1728
packages	-10.1744
▁implementation	-10.1772
Image	-10.178
▁diff	-10.1787
▁[\'	-10.1791
devices	-10.1793
deleted	-10.1797
▁year	-10.1799
Format	-10.1807
mac	-10.1815
revision	-10.1819
ist	-10.1824
web	-10.1835
byte	-10.1841
▁urllib	-10.185
weights	-10.1857
US	-10.186
>\	-10.1861
setdefault	-10.1865
▁product	-10.1867
pl	-10.1868
abspath	-10.1868
▁groups	-10.1871
▁final	-10.1875
mem	-10.1881
▁delta	-10.1887
▁django	-10.1888
pip	-10.1891
topic	-10.1894
EC	-10.1897
components	-10.1903
common	-10.1907
▁suffix	-10.1916
builder	-10.1916
▁schema	-10.1918
▁scalar	-10.1919
▁instances	-10.1922
IO	-10.1929
▁join	-10.1935
▁cfg	-10.1944
▁param	-10.1951
19	-10.1957
▁specify	-10.1957
simple	-10.196
go	-10.1971
▁raised	-10.1991
{0}	-10.1999
▁comp	-10.2004
flag	-10.2005
▁models	-10.2006
track	-10.2008
▁because	-10.2009
bucket	-10.2012
redirect	-10.2026
Source	-10.2027
ot	-10.2036
complete	-10.2039
17	-10.2041
▁''.	-10.2042
steps	-10.2048
▁fname	-10.2049
NO	-10.2051
fp	-10.2052
▁0))	-10.2055
basename	-10.2056
▁timestamp	-10.2058
▁docstring	-10.2085
vec	-10.2088
▁fig	-10.2092
▁properties	-10.2098
▁inspect	-10.2105
allclose	-10.2107
▁ver	-10.2123
cut	-10.2123
sec	-10.2124
term	-10.2131
contents	-10.2145
▁idx	-10.2153
▁resp	-10.2154
vals	-10.2156
proc	-10.2158
▁doctest	-10.2159
▁dst	-10.2162
▁what	-10.2166
▁File	-10.2167
expand	-10.2179
plugin	-10.2187
▁transform	-10.2194
report	-10.2205
▁padding	-10.2232
ld	-10.2239
▁shell	-10.2243
sock	-10.225
product	-10.2256
▁channels	-10.2265
▁signature	-10.2268
▁distance	-10.227
Send	-10.2272
▁5)	-10.2273
js	-10.2273
ndarray	-10.2273
lu	-10.2276
▁structure	-10.2288
▁least	-10.2294
ipv	-10.2297
Element	-10.2298
▁ensure	-10.2299
60	-10.2314
▁endpoint	-10.2315
▁hostname	-10.2316
fft	-10.2317
▁[1]	-10.232
▁exit	-10.2329
ctx	-10.2329
▁login	-10.2338
CS	-10.2338
compute	-10.234
System	-10.2341
▁most	-10.2344
))]	-10.2348
▁pair	-10.2352
wrapper	-10.2354
▁0)):	-10.2364
off	-10.2365
=0):	-10.2367
▁(1,	-10.2375
▁targets	-10.2382
change	-10.2385
Loop	-10.2396
ea	-10.2399
▁commit	-10.2402
ell	-10.2405
▁policy	-10.2409
▁deprecated	-10.2415
engine	-10.242
indent	-10.2425
▁wrapped	-10.2426
mail	-10.2434
DATA	-10.2435
▁override	-10.2439
ge	-10.2448
ite	-10.2449
ping	-10.2454
▁archive	-10.2457
comp	-10.2458
▁regex	-10.2461
ities	-10.2465
▁(\'	-10.2473
doctype	-10.2486
payload	-10.2493
lookup	-10.2493
dest	-10.2496
]])	-10.2501
Parser	-10.2501
ash	-10.2502
▁basestring	-10.2503
tokens	-10.2504
▁converted	-10.2508
edge	-10.2522
▁updated	-10.2526
property	-10.2536
getattr	-10.2537
▁machine	-10.254
less	-10.254
▁library	-10.2553
▁factor	-10.2554
▁(%	-10.2563
bound	-10.2563
▁day	-10.2567
▁folder	-10.257
category	-10.2571
▁gen	-10.2578
▁needed	-10.2581
▁entries	-10.2583
▁active	-10.259
▁failure	-10.2593
▁subprocess	-10.2593
▁head	-10.2595
agent	-10.2597
▁always	-10.2598
expression	-10.2599
ds	-10.2607
wiki	-10.261
▁cherrypy	-10.261
▁co	-10.2613
channel	-10.2616
▁slim	-10.2617
clear	-10.2621
defaults	-10.2623
[\'	-10.264
LA	-10.265
grains	-10.2654
dep	-10.2658
')]	-10.2658
jid	-10.2661
Instance	-10.2665
loads	-10.2667
PORT	-10.2673
astype	-10.268
IL	-10.2684
▁'__	-10.2689
sync	-10.2692
▁escape	-10.2693
dst	-10.2701
repr	-10.2712
ph	-10.2712
rm	-10.2713
▁look	-10.2716
ba	-10.2718
▁mock	-10.2719
non	-10.2727
prob	-10.273
▁decode	-10.2742
cov	-10.275
partition	-10.275
▁control	-10.2751
hi	-10.2753
dumps	-10.2754
▁Windows	-10.2756
encoded	-10.2761
boto	-10.2771
▁known	-10.2776
▁4,	-10.2777
pad	-10.278
inv	-10.2788
▁way	-10.279
raise	-10.2792
arange	-10.2793
▁trans	-10.2801
▁orig	-10.2808
▁close	-10.2819
Line	-10.2827
normal	-10.2827
{2}	-10.2828
▁commands	-10.2835
Network	-10.2835
((-	-10.2838
allow	-10.2839
▁payload	-10.2841
mon	-10.2854
assert	-10.2859
ERROR	-10.2864
404	-10.2864
36	-10.2868
▁blob	-10.2883
▁'/	-10.2889
▁Z	-10.2892
none	-10.2897
▁rpc	-10.2906
chain	-10.2912
▁appropriate	-10.2914
down	-10.2922
hy	-10.2923
merge	-10.2928
▁interval	-10.2928
▁tool	-10.2932
flow	-10.2932
▁additional	-10.2936
`.'	-10.2937
hether	-10.294
sha	-10.2941
tri	-10.2942
▁complete	-10.2943
tor	-10.2947
kernel	-10.2947
▁packages	-10.2958
}'	-10.2966
minion	-10.2968
Cache	-10.2972
▁requires	-10.2974
▁https	-10.2984
▁Number	-10.2992
ops	-10.2999
▁were	-10.3005
▁builder	-10.3011
▁rank	-10.3012
▁norm	-10.3016
acl	-10.3021
▁note	-10.3021
▁times	-10.3022
▁We	-10.3024
cat	-10.3029
▁(0,	-10.3029
signal	-10.3047
available	-10.3052
26	-10.3055
after	-10.3059
▁means	-10.3065
hidden	-10.3066
which	-10.3095
rgb	-10.3096
▁stat	-10.3102
▁associated	-10.3103
32)	-10.3103
▁tuples	-10.3106
snapshot	-10.3111
[0,	-10.3111
▁deleted	-10.3123
Base	-10.3127
CT	-10.3135
▁scheme	-10.3138
FLAGS	-10.3142
▁category	-10.3143
pot	-10.3151
▁200	-10.3169
▁RuntimeError	-10.3169
▁attempt	-10.3169
side	-10.3178
iv	-10.3184
▁struct	-10.3188
40	-10.3189
Redirect	-10.3195
Tag	-10.3198
▁master	-10.3235
▁every	-10.3238
ml	-10.3242
▁References	-10.3245
fmt	-10.3246
cpu	-10.3255
▁issue	-10.3262
API	-10.3263
SH	-10.3264
▁utils	-10.3264
sleep	-10.327
rpc	-10.327
▁sp	-10.3272
▁{1}	-10.3287
attrs	-10.3293
((((	-10.3302
▁ca	-10.3302
docs	-10.3305
Variable	-10.3308
▁provider	-10.3315
pillar	-10.3315
▁100	-10.3317
▁move	-10.3317
▁register	-10.3319
setting	-10.3323
rr	-10.3327
degree	-10.333
av	-10.3339
([(	-10.3341
NS	-10.3348
:\	-10.3348
▁positive	-10.3352
Resource	-10.3357
hex	-10.336
secure	-10.3363
stride	-10.337
seed	-10.3377
▁since	-10.3389
MAX	-10.3391
▁summary	-10.3392
mag	-10.3393
ified	-10.3394
Spec	-10.3396
▁best	-10.3398
▁problem	-10.34
Creates	-10.3407
exclude	-10.3415
FILE	-10.3415
splitlines	-10.3421
Call	-10.3428
VERSION	-10.3431
ExecutionError	-10.3431
ls	-10.3436
▁scipy	-10.3439
▁feed	-10.3441
▁Defaults	-10.3441
▁dt	-10.345
▁buf	-10.3459
▁lower	-10.3464
▁0],	-10.3465
▁normalize	-10.3469
mit	-10.3471
27	-10.3473
▁lookup	-10.3476
▁supplied	-10.3476
Address	-10.3476
Code	-10.3477
▁warning	-10.3479
14	-10.3479
▁requested	-10.3481
entity	-10.3484
100	-10.3485
▁dev	-10.3489
power	-10.3489
SA	-10.3497
Unknown	-10.35
ow	-10.3504
cos	-10.3512
Server	-10.3514
Print	-10.3515
commands	-10.3517
before	-10.3539
▁users	-10.3539
-8	-10.3541
Per	-10.3545
flatten	-10.3547
letter	-10.356
▁lists	-10.3567
training	-10.3568
Output	-10.3571
▁loc	-10.3573
bad	-10.3575
Token	-10.3582
hass	-10.3585
▁operator	-10.3595
thing	-10.3602
25	-10.3603
fetch	-10.3613
od	-10.3621
na	-10.3622
▁identifier	-10.3622
Message	-10.3626
extension	-10.3626
Length	-10.3629
CA	-10.3631
▁track	-10.3634
▁etc	-10.3641
Size	-10.3644
▁boxes	-10.3644
attributes	-10.3645
digest	-10.365
▁previous	-10.3671
rv	-10.3673
▁Each	-10.3676
ever	-10.3681
short	-10.3692
USER	-10.3693
epochs	-10.3694
▁0.1	-10.3695
pred	-10.3696
▁By	-10.3697
▁snapshot	-10.3699
▁manager	-10.3699
isfile	-10.3701
State	-10.3708
▁features	-10.371
hosts	-10.3718
▁repr	-10.3719
▁marker	-10.3731
Unable	-10.3731
You	-10.3736
▁training	-10.3737
fill	-10.3737
virtual	-10.374
constant	-10.374
icon	-10.3743
▁seed	-10.3744
interval	-10.3748
▁definition	-10.3758
▁char	-10.3762
dns	-10.3763
▁determine	-10.3764
▁[[	-10.3778
Converts	-10.3781
3_	-10.3781
angle	-10.3791
suffix	-10.3793
▁axes	-10.38
▁currently	-10.38
uint	-10.3802
▁require	-10.3807
▁lang	-10.3808
center	-10.3812
▁fetch	-10.3813
▁place	-10.3824
▁here	-10.3828
With	-10.3832
SubElement	-10.3842
▁Un	-10.3842
cm	-10.3843
1')	-10.3851
deg	-10.3855
50	-10.3856
▁whose	-10.3856
▁prop	-10.3861
▁partition	-10.3864
generator	-10.3865
work	-10.3867
▁wrap	-10.3876
▁retVal	-10.3882
github	-10.3882
Only	-10.3883
mb	-10.3884
css	-10.3884
▁memory	-10.389
23	-10.3893
▁useful	-10.3893
gz	-10.3896
']),	-10.3899
▁destination	-10.3899
6,	-10.39
▁attrs	-10.39
TO	-10.3907
.%	-10.3916
▁<<	-10.3917
▁encode	-10.3918
dump	-10.3925
days	-10.3925
attribute	-10.3926
axes	-10.3928
certificate	-10.3938
▁No	-10.3947
▁perform	-10.3948
lim	-10.395
▁loaded	-10.3953
▁0]	-10.3954
lat	-10.3962
2]	-10.3967
▁Otherwise	-10.3967
detail	-10.3977
jobs	-10.3985
impl	-10.4
truncate	-10.4002
▁fit	-10.4003
▁ex	-10.4004
CH	-10.4009
▁calls	-10.4011
kwds	-10.4017
static	-10.4023
inf	-10.4026
layers	-10.4026
users	-10.4031
Could	-10.4031
▁traceback	-10.4032
Host	-10.4041
▁along	-10.4044
distance	-10.4046
outputs	-10.4048
IF	-10.4049
▁sent	-10.4056
Attribute	-10.406
▁2-	-10.4072
▁included	-10.4079
▁con	-10.408
▁got	-10.4086
logical	-10.4091
▁proto	-10.4101
▁merge	-10.4116
symbol	-10.412
▁12	-10.4121
lineno	-10.4123
unpack	-10.4124
ratio	-10.4126
▁enabled	-10.4135
chars	-10.4135
▁arrays	-10.4141
move	-10.4148
Result	-10.4149
▁private	-10.4151
pw	-10.4151
Graph	-10.4153
▁component	-10.4154
card	-10.4162
▁theano	-10.4168
▁transaction	-10.4169
RI	-10.417
13	-10.417
▁desired	-10.4181
▁box	-10.4184
extract	-10.4185
libvlc	-10.4194
▁dimension	-10.4195
▁3.	-10.4208
▁power	-10.4209
▁how	-10.4213
Item	-10.4236
hour	-10.4241
wraps	-10.4241
ep	-10.4243
library	-10.4244
{1}	-10.4248
Task	-10.4254
▁exceptions	-10.4257
▁U	-10.4265
(-1),	-10.4266
ve	-10.427
null	-10.4272
If	-10.4272
2))	-10.4286
▁basic	-10.4292
proj	-10.4295
▁sure	-10.4301
▁Invalid	-10.4302
▁center	-10.4304
alt	-10.4304
Ensure	-10.4309
▁rate	-10.4314
vector	-10.432
sorted	-10.432
▁series	-10.4328
ssh	-10.4329
any	-10.4333
free	-10.4355
warnings	-10.4356
▁pad	-10.4358
operator	-10.4362
256	-10.4368
round	-10.437
ped	-10.4372
history	-10.4375
▁sql	-10.4378
▁epochs	-10.4385
▁'{0}	-10.4387
Auth	-10.4392
>',	-10.4393
▁Add	-10.4396
One	-10.4402
Import	-10.4408
▁16	-10.4409
▁fragment	-10.4415
protocol	-10.4415
rstrip	-10.4416
▁fill	-10.4416
▁directly	-10.4417
']]	-10.4419
▁threshold	-10.4423
Manager	-10.4437
found	-10.4439
Msg	-10.4443
ification	-10.4448
flush	-10.445
▁dot	-10.4455
▁components	-10.4461
▁degree	-10.4462
rad	-10.4463
▁chunks	-10.4465
▁numbers	-10.4467
exe	-10.4472
tb	-10.4479
▁Image	-10.4484
[^	-10.4487
▁sparse	-10.4494
▁stored	-10.4503
▁upload	-10.4504
Checks	-10.4508
▁calling	-10.4514
serialize	-10.4517
▁myminion	-10.4518
control	-10.4526
messages	-10.4531
▁examples	-10.4535
ave	-10.4545
columns	-10.4547
keep	-10.4551
ated	-10.4553
readline	-10.4556
▁inside	-10.4557
inds	-10.4558
▁klass	-10.4564
reduce	-10.4568
▁registry	-10.4574
chr	-10.4601
Method	-10.4602
▁statement	-10.461
▁those	-10.4611
require	-10.4611
apply	-10.4614
AF	-10.4617
INFO	-10.4621
SyntaxError	-10.4629
bot	-10.4629
wise	-10.4631
Configuration	-10.4636
driver	-10.4637
controller	-10.4638
so	-10.464
mm	-10.464
condition	-10.4646
▁reason	-10.4647
▁pillar	-10.4648
permission	-10.4653
video	-10.4664
rest	-10.4665
▁against	-10.468
eeg	-10.4685
▁minimum	-10.4699
]'	-10.4702
▁Set	-10.4706
▁[('	-10.471
PIPE	-10.4731
gt	-10.4731
ord	-10.4745
▁30	-10.4749
▁descriptor	-10.4751
▁RFC	-10.4756
▁foo	-10.4758
seek	-10.4759
Default	-10.4761
Event	-10.4761
tar	-10.4762
▁even	-10.4764
▁insert	-10.4768
grid	-10.4768
▁trigger	-10.4773
▁polynomial	-10.4779
OK	-10.4781
▁desc	-10.4782
▁setattr	-10.4793
TH	-10.4797
Pool	-10.4802
glob	-10.4814
modified	-10.4815
▁}}	-10.4816
dy	-10.4823
der	-10.4825
▁cc	-10.4826
MS	-10.4828
▁2),	-10.483
▁exploration	-10.4833
▁bit	-10.4836
minute	-10.4842
[0]))	-10.4843
feed	-10.4853
arch	-10.4853
sparse	-10.4855
NOT	-10.4858
pdf	-10.4861
▁program	-10.4861
▁translation	-10.487
ips	-10.4874
}'.	-10.4882
ME	-10.4893
Plugin	-10.4896
▁according	-10.4896
▁clear	-10.49
▁directories	-10.4907
▁packet	-10.491
▁rest	-10.4914
▁low	-10.4917
present	-10.4922
bb	-10.4927
By	-10.4937
exceptions	-10.4937
▁rules	-10.4942
▁side	-10.4943
cols	-10.4944
▁large	-10.4957
see	-10.4961
egg	-10.4966
sol	-10.4967
meg	-10.4973
▁prev	-10.4974
verify	-10.4977
put	-10.4977
▁normalized	-10.4978
major	-10.4984
▁loss	-10.4984
▁verify	-10.4985
(3)	-10.4997
Session	-10.5002
TIME	-10.5003
missing	-10.5006
▁needs	-10.5009
▁outputs	-10.5011
orig	-10.5014
SET	-10.5025
prog	-10.5035
struct	-10.5037
Sub	-10.504
dims	-10.504
Expected	-10.5048
▁filenames	-10.505
initializer	-10.5056
son	-10.5058
An	-10.5069
▁too	-10.5071
45	-10.508
▁RE	-10.5081
▁10)	-10.5084
ALL	-10.5088
(2,	-10.509
Status	-10.5092
reload	-10.5098
\'}	-10.5106
▁arr	-10.511
repository	-10.5111
SIZE	-10.5112
fix	-10.5115
▁edges	-10.5116
tt	-10.5118
▁io	-10.512
invalid	-10.5124
sig	-10.5126
▁me	-10.513
Search	-10.5136
▁seen	-10.5136
pub	-10.5141
transaction	-10.5143
▁5,	-10.5148
lag	-10.5148
ix	-10.5156
period	-10.5157
iso	-10.5158
▁alias	-10.5163
Write	-10.5168
▁public	-10.5168
8,	-10.5169
▁normal	-10.5174
edges	-10.5183
▁modified	-10.5185
▁1)))	-10.5185
▁uri	-10.519
▁32	-10.5193
▁vars	-10.5193
▁bound	-10.52
au	-10.52
▁sep	-10.5203
bi	-10.5204
scalar	-10.5213
▁period	-10.5213
Pro	-10.5219
▁kw	-10.5228
Factory	-10.5237
ones	-10.5242
▁strict	-10.5246
original	-10.5253
=['	-10.5253
▁mac	-10.5257
subprocess	-10.5263
▁bar	-10.5272
ability	-10.5277
series	-10.5278
database	-10.528
▁(2	-10.5283
]):	-10.5285
▁formatted	-10.5287
▁another	-10.5291
▁fix	-10.5295
ible	-10.53
(_('	-10.5301
▁pieces	-10.5304
TE	-10.5309
App	-10.5311
DEBUG	-10.5317
SS	-10.5323
signature	-10.5324
End	-10.5326
▁String	-10.5332
▁solution	-10.5343
')))	-10.5347
▁term	-10.5347
▁runner	-10.536
1',	-10.5361
▁1]	-10.5361
integer	-10.5361
FORMAT	-10.5363
lab	-10.5366
TER	-10.5368
cell	-10.5368
failed	-10.5372
artist	-10.5372
gr	-10.5382
96	-10.5383
wsgi	-10.5387
ack	-10.5388
▁upper	-10.5395
EX	-10.5399
sel	-10.54
▁ssl	-10.54
clean	-10.54
▁many	-10.5401
Open	-10.5406
▁documentation	-10.5406
▁go	-10.5415
=2)	-10.5415
▁average	-10.5416
branch	-10.5418
help	-10.542
proto	-10.5425
relative	-10.5428
▁bucket	-10.543
('^	-10.544
▁free	-10.5452
normalize	-10.5454
▁candidate	-10.5454
▁activation	-10.5455
drive	-10.5456
archive	-10.5457
NotFound	-10.5461
ous	-10.5468
▁2]	-10.5468
colors	-10.5471
reset	-10.5486
ii	-10.549
▁compare	-10.5492
perm	-10.5492
▁well	-10.5498
our	-10.5498
fid	-10.5501
member	-10.5502
timezone	-10.5513
CO	-10.5516
iterable	-10.5522
▁construct	-10.5523
▁sh	-10.5526
png	-10.5533
csv	-10.5537
span	-10.5541
▁route	-10.5543
mock	-10.5551
Block	-10.5582
([[	-10.5586
rfc	-10.5586
inst	-10.5587
keyid	-10.5587
▁mx	-10.5588
('#	-10.559
upload	-10.559
cp	-10.5604
Context	-10.5607
meth	-10.5608
▁precision	-10.5608
accept	-10.5609
neighbor	-10.5614
Layer	-10.5614
rois	-10.5619
▁inner	-10.5621
prev	-10.5622
▁static	-10.5623
identity	-10.563
contrib	-10.5633
▁Unicode	-10.5634
▁shared	-10.5637
exec	-10.5637
enable	-10.5638
▁bad	-10.5644
99	-10.5647
▁inter	-10.5649
▁applied	-10.5652
dec	-10.5654
play	-10.5654
1))	-10.5655
▁necessary	-10.5661
hooks	-10.5662
fig	-10.567
▁equivalent	-10.5671
poly	-10.5671
2:	-10.5672
pair	-10.5674
Profile	-10.5674
std	-10.5683
END	-10.5686
▁off	-10.5686
Header	-10.5689
tol	-10.569
unique	-10.5696
▁dim	-10.5697
dom	-10.57
specs	-10.5703
▁branch	-10.5708
00\	-10.5709
▁util	-10.571
ident	-10.5711
▁environ	-10.5717
amp	-10.5724
▁take	-10.5725
▁("	-10.5727
▁URI	-10.5728
▁literal	-10.5732
▁origin	-10.5733
▁internal	-10.5748
▁samples	-10.5756
▁conv	-10.5761
▁symbol	-10.5761
▁matplotlib	-10.5763
her	-10.5774
Match	-10.5785
▁loader	-10.5793
2):	-10.5795
▁pr	-10.5798
DO	-10.58
family	-10.5803
▁hour	-10.5806
readable	-10.5812
ION	-10.5813
▁eval	-10.582
▁provide	-10.5821
▁links	-10.5823
▁8)	-10.5825
▁special	-10.583
ctl	-10.5833
Local	-10.5833
tm	-10.5841
Page	-10.5845
errno	-10.585
▁cached	-10.5851
installed	-10.5854
resp	-10.5857
▁((((	-10.5865
yes	-10.5865
▁sol	-10.5869
06	-10.5872
specific	-10.5879
operation	-10.5882
resources	-10.5887
[1:])	-10.5887
21	-10.5889
Net	-10.5897
0-9	-10.5901
(':')	-10.5902
▁bin	-10.5907
▁expect	-10.5919
▁high	-10.5928
component	-10.5935
'))):	-10.5938
;')	-10.594
decorator	-10.5941
Or	-10.5942
▁appear	-10.5942
basic	-10.5942
ler	-10.595
async	-10.5955
▁accept	-10.5957
bulk	-10.5959
visit	-10.5962
1:	-10.5967
button	-10.5972
▁comps	-10.5978
concatenate	-10.5978
enc	-10.5984
▁overwrite	-10.5988
surf	-10.5989
StringIO	-10.5992
▁warn	-10.5997
▁execution	-10.6003
frac	-10.6011
▁linear	-10.6011
▁suite	-10.6016
tic	-10.6029
[2])	-10.6033
failure	-10.6041
beta	-10.6045
details	-10.6045
▁execute	-10.6048
▁Get	-10.6055
Extract	-10.6057
▁credentials	-10.6059
`'	-10.6061
28	-10.6067
[4]	-10.607
▁timezone	-10.6072
heap	-10.6072
▁partial	-10.6073
af	-10.6075
cmp	-10.6081
▁metric	-10.6085
▁sig	-10.609
comments	-10.6101
▁blocks	-10.6105
hat	-10.6106
▁hparams	-10.6107
ier	-10.6112
▁versions	-10.6115
▁fs	-10.6115
Column	-10.6116
▁'..	-10.6118
mapper	-10.6122
▁member	-10.6123
▁Input	-10.6126
Int	-10.613
▁dimensions	-10.6131
decay	-10.6132
▁grad	-10.6137
endpoint	-10.6145
push	-10.6158
kill	-10.6162
variables	-10.6166
Map	-10.6171
Use	-10.6174
lc	-10.6176
finite	-10.618
serve	-10.6182
Feature	-10.6186
Record	-10.6188
Validate	-10.6188
cost	-10.6188
scores	-10.6194
marker	-10.6202
fixture	-10.6204
crypto	-10.6206
destroy	-10.6206
▁netloc	-10.621
(\\	-10.6218
shared	-10.6218
Handle	-10.6221
final	-10.6224
Valid	-10.6231
▁Only	-10.6236
70	-10.6237
Cannot	-10.624
▁stride	-10.6241
td	-10.6251
support	-10.6252
"\	-10.6259
override	-10.6262
watch	-10.6266
▁configured	-10.6269
▁trace	-10.6275
000	-10.6286
▁Tensor	-10.6286
31	-10.6289
48	-10.629
environment	-10.629
services	-10.6307
(',')	-10.631
BO	-10.6312
▁sa	-10.6313
fullname	-10.6313
Decorator	-10.6316
02	-10.6319
requires	-10.6321
90	-10.6324
Co	-10.6329
counter	-10.6335
Url	-10.6337
▁:]	-10.6342
Expr	-10.6343
lex	-10.6348
Options	-10.6348
▁'/')	-10.6348
86	-10.6356
04	-10.6362
ling	-10.6363
▁0.5	-10.6364
▁1.0)	-10.6371
▁enable	-10.6372
issue	-10.6375
parsed	-10.6378
filepath	-10.6382
Op	-10.6384
Date	-10.6398
ted	-10.641
ture	-10.641
da	-10.6417
pipeline	-10.642
08	-10.6422
▁automatically	-10.6423
▁pk	-10.6424
correct	-10.6425
late	-10.6427
Order	-10.6439
TypeError	-10.6441
▁secret	-10.6452
instances	-10.6461
▁shift	-10.6464
utc	-10.6468
▁during	-10.6469
▁above	-10.647
MAP	-10.6477
▁works	-10.6485
▁tb	-10.6486
listdir	-10.6497
▁children	-10.6502
Mode	-10.6505
rev	-10.6505
▁{},	-10.6505
Conv	-10.6508
22	-10.6508
▁cursor	-10.6513
▁dump	-10.6514
\'``	-10.6518
1000	-10.6519
▁updates	-10.6524
▁core	-10.6527
rank	-10.6527
handlers	-10.6532
▁StringIO	-10.6538
▁down	-10.6541
▁15	-10.6542
forward	-10.6547
▁assumed	-10.6549
Count	-10.6551
align	-10.6551
▁-1	-10.6551
7,	-10.6553
shift	-10.6558
kwarg	-10.6559
oauth	-10.656
▁Can	-10.6561
running	-10.6567
CE	-10.6568
CC	-10.6569
▁condition	-10.6572
View	-10.6572
drop	-10.6574
Control	-10.6582
tail	-10.6589
▁until	-10.6601
plugins	-10.6603
typ	-10.6606
RO	-10.6611
unknown	-10.6611
▁future	-10.662
▁OS	-10.6623
Dir	-10.6627
▁double	-10.6628
▁figure	-10.6634
▁globs	-10.6636
65	-10.6639
used	-10.6639
▁typ	-10.6643
cursor	-10.6652
rules	-10.6657
walk	-10.6663
MODE	-10.6666
▁3]	-10.6676
▁particular	-10.6676
board	-10.6677
▁Co	-10.6679
adjust	-10.668
▁complex	-10.6681
▁freq	-10.6682
edit	-10.6682
Sequence	-10.6693
▁cli	-10.6694
stub	-10.6696
▁elem	-10.6698
▁tar	-10.6698
Link	-10.6709
▁beta	-10.6718
quant	-10.6718
fe	-10.6718
▁decoded	-10.6722
ending	-10.6723
expire	-10.6729
chunks	-10.6733
[(-1)])	-10.6735
UP	-10.6736
second	-10.6737
▁grid	-10.6738
▁regular	-10.674
selection	-10.6745
delay	-10.6745
most	-10.6746
29	-10.6748
▁driver	-10.6759
prime	-10.676
actions	-10.676
clip	-10.6764
▁clone	-10.6766
-2	-10.6773
TEST	-10.6778
ele	-10.678
▁clip	-10.6782
catalog	-10.6782
▁subclass	-10.6782
▁cell	-10.6791
vis	-10.6792
▁negative	-10.6797
▁less	-10.6799
helper	-10.6803
builtin	-10.6807
ptr	-10.681
cb	-10.681
▁tri	-10.6814
▁cwd	-10.6822
▁caller	-10.683
vol	-10.6831
Target	-10.6835
▁colors	-10.6837
MI	-10.684
▁charset	-10.684
light	-10.6841
Input	-10.6847
▁comma	-10.6866
▁'.')	-10.6868
▁'<	-10.6872
LI	-10.6873
▁rendered	-10.6879
chan	-10.6885
Str	-10.6889
▁frequency	-10.6895
vpc	-10.6897
solution	-10.6901
live	-10.6903
Bad	-10.6904
Location	-10.691
eta	-10.6914
▁virtual	-10.6917
66	-10.692
AUTH	-10.692
▁cl	-10.6921
[1].	-10.6922
▁subnet	-10.6922
▁NotImplemented	-10.6922
average	-10.6923
gateway	-10.6923
▁tz	-10.6924
▁reg	-10.6925
▁forward	-10.6928
alter	-10.6929
1.1	-10.6932
logits	-10.6937
makedirs	-10.6944
dirty	-10.6944
')])	-10.6945
34	-10.695
switch	-10.6956
▁1:	-10.6959
sender	-10.6963
executable	-10.6967
▁Data	-10.6968
▁constant	-10.6968
Web	-10.6968
pages	-10.6969
▁factory	-10.6969
500	-10.697
blocks	-10.6972
APP	-10.6977
▁dirname	-10.6983
[:2]	-10.6998
reader	-10.6999
units	-10.7013
retries	-10.7014
▁hex	-10.7016
configure	-10.7018
threads	-10.7025
▁mu	-10.7026
rd	-10.7026
1/	-10.7031
55	-10.7036
pc	-10.7037
▁'\\	-10.7048
▁6)	-10.7049
Device	-10.705
klass	-10.7055
▁'{0}'	-10.7059
week	-10.7061
Thread	-10.7062
ram	-10.7064
▁guess	-10.7068
▁sequences	-10.707
Display	-10.7072
▁Function	-10.7072
inner	-10.7075
lst	-10.7076
configuration	-10.7077
dic	-10.7084
▁abs	-10.7085
NG	-10.709
▁fmt	-10.7096
plus	-10.7099
/2	-10.7111
ru	-10.7117
▁addr	-10.7123
single	-10.7124
Determine	-10.7126
subs	-10.7127
gram	-10.713
Application	-10.7137
dense	-10.7138
▁proc	-10.7139
[:]	-10.7139
▁reset	-10.7147
▁md	-10.7151
parameter	-10.7154
descriptor	-10.7156
mt	-10.7156
subplot	-10.7156
CL	-10.7157
▁urlparse	-10.7158
▁controller	-10.7158
▁globals	-10.7159
menu	-10.7162
polys	-10.7165
400	-10.7167
Of	-10.7171
bias	-10.7182
passwd	-10.7183
const	-10.7185
▁3):	-10.7187
▁nested	-10.719
deploy	-10.7191
ET	-10.7192
custom	-10.7194
windows	-10.7194
states	-10.7199
▁indicat	-10.7203
world	-10.7214
▁60)	-10.7219
09	-10.7221
▁1],	-10.7221
▁dis	-10.723
cond	-10.7245
existing	-10.7251
coeff	-10.7264
▁video	-10.7267
▁IMPL	-10.727
▁segment	-10.727
▁creating	-10.7273
▁Path	-10.7273
tempdir	-10.7276
▁symbols	-10.7278
▁starting	-10.7278
identifier	-10.728
▁ring	-10.7287
▁ids	-10.7292
Tensor	-10.7292
origin	-10.7294
notify	-10.7301
▁remaining	-10.7312
attachment	-10.7313
workspace	-10.7314
▁Base	-10.7315
▁DEFAULT	-10.7319
▁chain	-10.7322
pairs	-10.7325
security	-10.7326
▁dup	-10.7329
echo	-10.734
pat	-10.7346
nic	-10.7355
▁coordinates	-10.7358
Register	-10.7359
Transform	-10.736
▁16)	-10.7361
.")	-10.7364
▁something	-10.7366
▁4]	-10.7378
Retrieve	-10.7382
ui	-10.7392
▁around	-10.7393
Basic	-10.7393
Queue	-10.7415
bundle	-10.7415
ically	-10.7418
gzip	-10.742
evoked	-10.7427
tile	-10.7427
Number	-10.7429
▁pd	-10.743
charset	-10.7437
03	-10.744
widget	-10.7442
▁uuid	-10.7455
▁(1.0	-10.7457
monitor	-10.7464
compose	-10.7471
▁0),	-10.7481
PRO	-10.7483
▁difference	-10.7483
done	-10.7488
Ref	-10.7491
Random	-10.7506
07	-10.7508
visible	-10.7521
USE	-10.7522
▁Any	-10.7529
segment	-10.7534
]*	-10.7538
mount	-10.7546
tasks	-10.7547
New	-10.7552
hold	-10.7553
▁bias	-10.7555
Python	-10.7556
hist	-10.7558
▁fd	-10.7563
▁aws	-10.7564
▁comments	-10.7569
▁prep	-10.757
▁All	-10.757
adapter	-10.7575
Command	-10.758
▁recent	-10.7582
uniform	-10.7583
▁discovery	-10.7586
▁selected	-10.7587
▁checks	-10.7591
begin	-10.7592
Decode	-10.7594
▁``\'	-10.7602
()]	-10.7603
▁notification	-10.7605
inc	-10.7605
Loader	-10.7613
▁compiler	-10.7639
FIFF	-10.7639
▁rec	-10.7643
completion	-10.7644
mtime	-10.7644
qs	-10.7645
▁retry	-10.7646
▁individual	-10.7647
Series	-10.7655
=[]	-10.7659
▁50	-10.7664
MP	-10.7667
▁avoid	-10.7669
▁VM	-10.7672
▁sentence	-10.7686
memory	-10.7686
▁boundary	-10.7688
price	-10.7688
OW	-10.7692
▁Py	-10.7695
▁monitor	-10.771
patterns	-10.7711
▁strip	-10.7712
MO	-10.7712
Port	-10.7713
frag	-10.7716
▁pack	-10.7718
ft	-10.7723
▁pe	-10.7724
)})	-10.7725
LO	-10.7726
xy	-10.7729
▁picks	-10.7736
Complex	-10.7737
▁fails	-10.7739
font	-10.774
()[0]	-10.7745
student	-10.7746
Wrapper	-10.7749
clone	-10.7753
▁sigma	-10.7754
>')	-10.7758
▁engine	-10.7759
Install	-10.776
▁revision	-10.777
▁square	-10.7771
bus	-10.778
]}	-10.7782
SELECT	-10.7783
globals	-10.7788
aa	-10.7792
▁testing	-10.7797
▁begin	-10.78
▁'&	-10.78
timedelta	-10.7801
'})	-10.7804
testing	-10.7805
▁registered	-10.7805
[(-	-10.7807
▁ZZ	-10.7809
rot	-10.7811
Keys	-10.7814
fc	-10.7814
LOG	-10.782
▁dirs	-10.784
▁whitespace	-10.7862
Popen	-10.7864
▁expand	-10.7866
▁pid	-10.7871
swap	-10.7871
▁separator	-10.7874
vlan	-10.7876
▁dns	-10.7881
▁units	-10.7885
cached	-10.7886
▁owner	-10.7888
Work	-10.7889
▁SQL	-10.7891
transpose	-10.7895
compress	-10.7897
▁saved	-10.7898
Download	-10.7899
▁digest	-10.7905
▁pickle	-10.7906
▁resulting	-10.7909
▁el	-10.7912
▁{{	-10.7915
note	-10.7916
▁sin	-10.7918
39	-10.7933
▁gradient	-10.7934
stmt	-10.7936
▁once	-10.7937
▁slug	-10.7942
examples	-10.7942
neg	-10.7946
Property	-10.7948
native	-10.7949
false	-10.795
cancel	-10.7954
Len	-10.7959
)],	-10.7966
▁integers	-10.7974
Calculate	-10.7984
▁addresses	-10.7998
▁steps	-10.8001
initial	-10.8002
▁refresh	-10.8007
mne	-10.8013
▁Dictionary	-10.8014
concat	-10.8015
ard	-10.8016
country	-10.8022
AS	-10.8025
▁Key	-10.8025
▁bot	-10.8029
xb	-10.8036
lead	-10.8036
big	-10.8037
▁fixed	-10.8041
▁permission	-10.8044
avg	-10.8047
Copy	-10.8047
▁itself	-10.8055
8)	-10.8056
▁supports	-10.8061
selector	-10.8062
▁dictionaries	-10.8068
candidate	-10.8069
▁disable	-10.8069
All	-10.8069
▁parsing	-10.8074
hdr	-10.8076
53	-10.809
ger	-10.809
iface	-10.809
dig	-10.8104
▁lineno	-10.8105
▁newline	-10.8105
▁round	-10.811
(3,	-10.8112
fif	-10.8112
overlap	-10.8125
bind	-10.8128
▁made	-10.8128
sin	-10.8134
▁resolve	-10.8135
▁reduce	-10.814
peak	-10.8143
learn	-10.8151
constraint	-10.8153
▁leading	-10.8153
▁shutil	-10.8154
follow	-10.8159
negative	-10.8172
▁en	-10.8177
strftime	-10.8177
rh	-10.8188
▁spaces	-10.8189
AD	-10.8189
▁collect	-10.8194
tick	-10.8197
▁own	-10.8206
layout	-10.8209
Doc	-10.8209
▁computed	-10.821
__))	-10.821
protect	-10.8214
▁3))	-10.8216
ise	-10.8218
▁bbox	-10.822
35	-10.8221
[0]]	-10.8222
▁helper	-10.8222
GR	-10.8232
nonce	-10.8235
▁Django	-10.8239
diag	-10.8239
tzinfo	-10.8239
ten	-10.8241
▁fake	-10.8258
{\	-10.8261
▁dec	-10.8271
distribution	-10.8271
high	-10.8271
linear	-10.8277
writer	-10.8281
▁authentication	-10.8282
reason	-10.8284
=1):	-10.8299
LC	-10.8304
pkgs	-10.8304
▁queryset	-10.8306
infer	-10.8312
LINE	-10.8314
RequestContext	-10.8316
▁define	-10.8319
Encode	-10.832
▁11	-10.8325
▁replacement	-10.8328
coords	-10.8329
▁backup	-10.8332
counts	-10.8348
▁quoted	-10.836
structure	-10.836
LOGGER	-10.8361
STRING	-10.8374
elementNode	-10.8374
▁student	-10.8376
▁sources	-10.838
ang	-10.8381
▁hook	-10.8382
activate	-10.8386
=''):	-10.8387
▁refer	-10.8388
mu	-10.8391
▁counter	-10.8399
42	-10.8403
retry	-10.8403
?'	-10.8408
▁pick	-10.8408
Tree	-10.8412
FS	-10.8422
comps	-10.8423
▁dmp	-10.8425
▁1):]	-10.8431
▁So	-10.8434
reply	-10.8434
▁pytest	-10.8434
traceback	-10.8437
place	-10.844
white	-10.8442
1]	-10.8444
Parameter	-10.8448
gid	-10.8448
▁blank	-10.8449
Feed	-10.845
members	-10.8451
tries	-10.8451
related	-10.8452
inclusion	-10.8461
jinja	-10.8461
linalg	-10.8461
▁worker	-10.8461
gl	-10.8462
▁Request	-10.8462
33	-10.8467
▁specifying	-10.8471
▁19	-10.8472
Split	-10.8473
Repository	-10.8473
BASE	-10.8473
▁tail	-10.8477
ber	-10.8482
findall	-10.8483
refs	-10.8484
▁lo	-10.8485
67	-10.8485
▁vpc	-10.8488
peer	-10.8497
season	-10.8499
rating	-10.8499
▁direction	-10.8502
▁ratio	-10.8521
((1	-10.8521
ensure	-10.8526
randint	-10.8544
▁terms	-10.8547
UR	-10.8548
exploration	-10.8552
▁security	-10.8561
DoesNotExist	-10.8562
▁inv	-10.8562
▁constants	-10.8572
▁replaced	-10.8573
▁delimiter	-10.8574
Label	-10.8574
translate	-10.8578
▁written	-10.8582
Directory	-10.8587
staff	-10.8587
mitted	-10.8587
Change	-10.8588
▁permissions	-10.8589
threshold	-10.8591
direct	-10.86
▁Not	-10.86
▁Test	-10.86
▁Value	-10.86
▁estimate	-10.86
editor	-10.8603
indexer	-10.8603
refresh	-10.8606
128	-10.8624
codon	-10.8625
curr	-10.8627
▁writer	-10.8632
mer	-10.8633
SERVER	-10.8635
resolver	-10.8637
verbosity	-10.8638
dat	-10.8643
dropout	-10.8645
views	-10.8645
repl	-10.8647
tmpdir	-10.8648
123	-10.8652
My	-10.8652
▁built	-10.8657
Num	-10.8659
hot	-10.8659
[2:]	-10.8665
usr	-10.8666
▁might	-10.8667
future	-10.8668
bbox	-10.8676
fileName	-10.8683
"%	-10.8687
▁suitable	-10.8689
sources	-10.8691
variant	-10.8702
combine	-10.8706
FF	-10.871
player	-10.8712
▁inst	-10.8713
subnet	-10.8714
functools	-10.8714
coil	-10.8718
cf	-10.8725
▁On	-10.8728
▁epoch	-10.873
▁assume	-10.8732
▁allows	-10.8734
▁below	-10.8739
inject	-10.874
wb	-10.8741
▁'#	-10.8744
▁progress	-10.8747
sigma	-10.8749
lstrip	-10.8749
▁compile	-10.8751
dependencies	-10.876
whitelist	-10.8762
▁2)))	-10.8771
▁2.0)	-10.8772
75	-10.8776
permissions	-10.8778
Vector	-10.8779
(':'	-10.8779
▁cross	-10.878
metaclass	-10.878
Template	-10.8787
Linux	-10.8792
▁App	-10.8795
stdin	-10.8797
ick	-10.8802
plan	-10.8806
crop	-10.8807
[1]))	-10.8811
flat	-10.8813
Some	-10.8814
Construct	-10.8818
xa	-10.8821
▁40	-10.8822
▁locals	-10.8823
absolute	-10.8826
Store	-10.8833
ENT	-10.8835
macro	-10.8837
``.'	-10.8841
▁widget	-10.8841
▁evoked	-10.8841
ative	-10.8842
'--	-10.8844
▁export	-10.8846
▁unless	-10.8847
▁sqrt	-10.885
▁reuse	-10.8852
tgt	-10.8855
Stream	-10.8856
optimizer	-10.8857
catch	-10.8861
▁hosts	-10.8867
▁cipher	-10.8867
▁sensor	-10.887
Custom	-10.887
fire	-10.8875
2',	-10.8879
▁(2,	-10.8879
▁numeric	-10.8885
digits	-10.8887
">	-10.8887
Up	-10.8888
solve	-10.8892
▁font	-10.8892
datacenter	-10.8893
▁put	-10.8894
lm	-10.8896
Show	-10.8896
void	-10.8899
statement	-10.8908
tell	-10.8917
checkpoint	-10.8918
▁temporary	-10.892
SQL	-10.892
entries	-10.8922
▁eq	-10.8923
▁occur	-10.8935
']('	-10.8939
SHA	-10.894
▁scores	-10.8944
▁runas	-10.8952
▁radius	-10.8959
astropy	-10.8962
ffi	-10.8964
▁Object	-10.8965
[%	-10.8966
▁ec	-10.8968
\'.'	-10.8968
PEM	-10.8981
listener	-10.8981
▁DE	-10.8983
ful	-10.8988
nearest	-10.8988
Action	-10.8988
Mark	-10.8989
2\	-10.8991
Reference	-10.8999
hr	-10.9
▁1)])	-10.9001
▁cos	-10.9003
browser	-10.9004
Color	-10.9005
dashboard	-10.9014
shed	-10.9018
dispatch	-10.9019
props	-10.9025
▁0)]	-10.9027
><	-10.9027
▁browser	-10.9028
▁produce	-10.9031
grade	-10.9034
▁executable	-10.9037
translation	-10.9041
figure	-10.9047
▁records	-10.9052
matches	-10.9057
▁sha	-10.9063
VER	-10.9064
linux	-10.9068
pickle	-10.9068
bo	-10.9069
domains	-10.907
qui	-10.9073
aws	-10.9077
HOST	-10.9081
smart	-10.9082
▁answer	-10.9087
phone	-10.9089
meter	-10.9091
fileobj	-10.9098
RS	-10.9098
First	-10.9108
mpl	-10.9109
SO	-10.9111
magic	-10.9112
=2,	-10.9112
▁imp	-10.9117
inter	-10.9119
ATION	-10.9121
▁family	-10.9122
suite	-10.9124
▁escaped	-10.9137
▁Used	-10.9138
▁Please	-10.9138
iterator	-10.914
nb	-10.9143
mid	-10.9148
HOME	-10.9148
manifest	-10.9148
▁null	-10.9148
que	-10.9154
enum	-10.9158
Select	-10.9161
relu	-10.9165
same	-10.9166
deprecated	-10.9167
best	-10.9174
defined	-10.9175
0.2	-10.9176
serializer	-10.9179
▁keywords	-10.9187
prod	-10.9188
37	-10.9191
shard	-10.9191
cron	-10.9192
entities	-10.9196
▁Usage	-10.9199
thresh	-10.92
72	-10.9214
▁sync	-10.922
▁filesystem	-10.9224
terms	-10.9225
▁entities	-10.9225
▁CONF	-10.9228
interactive	-10.9233
^2	-10.9238
▁connected	-10.9242
NN	-10.9244
Takes	-10.925
[0:	-10.925
▁se	-10.9255
Perform	-10.9258
Try	-10.9259
dynamic	-10.9265
▁fraction	-10.9267
initialize	-10.9269
▁layout	-10.9274
eps	-10.9278
localhost	-10.928
▁prompt	-10.9281
63	-10.9283
should	-10.9288
▁evaluate	-10.9292
__.__	-10.9292
detection	-10.9296
placeholder	-10.9296
backward	-10.9297
▁IndexError	-10.9297
▁dependencies	-10.9302
hasattr	-10.9307
updated	-10.931
LL	-10.931
__():	-10.9313
definition	-10.9316
progress	-10.9316
▁pi	-10.9319
▁cols	-10.932
NT	-10.9325
▁collections	-10.9327
▁handlers	-10.9327
perms	-10.9327
▁nt	-10.9328
▁schedule	-10.9333
▁decorated	-10.9333
connected	-10.9341
▁switch	-10.9347
201	-10.9348
88	-10.9354
INT	-10.9359
capacity	-10.9365
maybe	-10.9369
masked	-10.9378
Array	-10.9386
complex	-10.9386
▁implement	-10.9391
serving	-10.9398
▁draw	-10.9399
symbols	-10.9401
LD	-10.9417
partial	-10.9417
▁including	-10.9418
{%	-10.9418
▁scan	-10.942
gpu	-10.9425
face	-10.9426
▁unknown	-10.9426
ish	-10.943
IR	-10.9433
lv	-10.9433
room	-10.9437
▁ssh	-10.9438
▁attach	-10.9439
roles	-10.9443
java	-10.9447
registration	-10.9447
▁equation	-10.9447
qt	-10.9448
ticket	-10.9448
compat	-10.9458
Min	-10.9459
▁convolution	-10.9461
presence	-10.9461
Simple	-10.9462
▁separate	-10.9467
once	-10.9469
algorithm	-10.947
migration	-10.9475
00'	-10.9479
44	-10.948
▁edit	-10.948
▁decimal	-10.9482
And	-10.9496
some	-10.95
Assert	-10.9503
CODE	-10.9504
▁noise	-10.951
▁authorization	-10.9513
repeat	-10.9513
based	-10.9515
▁our	-10.9516
Description	-10.9517
hub	-10.952
▁retrieve	-10.9521
fixed	-10.9526
▁2],	-10.9529
Region	-10.9532
bridge	-10.9533
▁very	-10.9534
77	-10.9542
draft	-10.9544
▁behavior	-10.9544
bootstrap	-10.9545
authenticated	-10.9547
fast	-10.955
managed	-10.9551
supported	-10.9555
ground	-10.9557
PREFIX	-10.9558
ancestor	-10.9558
▁cases	-10.9562
▁inverse	-10.9562
▁nothing	-10.9564
▁Open	-10.9569
▁mail	-10.9571
▁glob	-10.9572
Interface	-10.958
coord	-10.958
rheader	-10.9581
▁dry	-10.9583
rep	-10.9586
credentials	-10.9588
▁fun	-10.9605
▁similar	-10.9612
internal	-10.9613
▁nb	-10.9613
arguments	-10.9614
▁related	-10.9615
solver	-10.9617
Max	-10.9617
enrollment	-10.9629
▁restore	-10.9633
▁cause	-10.9634
▁saltenv	-10.9637
fl	-10.9638
compiler	-10.964
leaf	-10.9645
▁walk	-10.9647
csrf	-10.9649
ue	-10.9656
▁stc	-10.9656
syn	-10.9657
sent	-10.9659
jar	-10.9661
▁merged	-10.9668
Connect	-10.9669
Multi	-10.967
▁pipeline	-10.9674
mk	-10.9676
covariance	-10.9677
▁extensions	-10.9681
splitext	-10.9681
▁flat	-10.9684
CACHE	-10.9685
front	-10.9685
sensor	-10.9685
68	-10.9686
▁'-')	-10.9689
▁parallel	-10.9689
outer	-10.9703
▁face	-10.9707
▁reactor	-10.9712
▁vectors	-10.9713
connectivity	-10.9713
half	-10.9715
▁Call	-10.9721
lp	-10.9722
gate	-10.9725
lazy	-10.9728
Document	-10.9729
IG	-10.973
ticks	-10.9734
([1,	-10.9741
problem	-10.9743
prompt	-10.9743
callable	-10.9744
255	-10.9745
FOR	-10.9749
▁AreEqual	-10.9756
ib	-10.9758
▁100)	-10.9759
ari	-10.9769
Deferred	-10.977
('"'	-10.9775
▁console	-10.978
▁tempfile	-10.9783
Operation	-10.9785
trigger	-10.9787
activity	-10.9787
receiver	-10.9788
review	-10.979
▁cost	-10.9792
HE	-10.9801
percent	-10.9802
inventory	-10.9813
simplify	-10.9813
RGB	-10.9814
padding	-10.9816
Argument	-10.9821
bug	-10.9824
▁matched	-10.9828
attempt	-10.9828
ravel	-10.9829
▁assigned	-10.9831
▁2)]	-10.9838
▁formats	-10.9845
"]	-10.9846
lexer	-10.9847
85	-10.9851
disable	-10.9853
▁trim	-10.9854
▁follow	-10.9856
latest	-10.986
fragment	-10.9861
cwd	-10.9865
lan	-10.9866
RPC	-10.987
▁states	-10.9873
contact	-10.9875
seg	-10.9887
Parameters	-10.9887
gens	-10.9892
lr	-10.9899
tablename	-10.9899
Empty	-10.99
▁three	-10.99
datastore	-10.99
▁considered	-10.9924
▁oauth	-10.9926
Proxy	-10.9929
trust	-10.9929
!'	-10.9929
▁super	-10.9933
tan	-10.9934
dimensional	-10.9943
="%	-10.9946
slots	-10.9947
priority	-10.9949
(?:	-10.9951
▁cv	-10.9954
ight	-10.9955
▁handling	-10.9958
MIN	-10.9959
Raw	-10.9959
vocab	-10.9964
person	-10.9966
arm	-10.9966
IVE	-10.9967
worker	-10.997
▁cov	-10.9976
On	-10.9977
▁choices	-10.9979
47	-10.9985
▁255	-10.9991
▁patterns	-10.9992
corr	-10.9993
▁128	-10.9994
posix	-10.9999
Section	-11.0001
▁disabled	-11.0002
pem	-11.0005
sampling	-11.0016
▁devices	-11.0019
▁tr	-11.0023
Certificate	-11.0027
Lock	-11.0031
margin	-11.0032
ile	-11.0033
▁includes	-11.0033
cv	-11.0033
▁FIFF	-11.0036
preference	-11.0039
▁latest	-11.0042
▁uni	-11.0046
management	-11.0046
▁Time	-11.0047
56	-11.0052
wrapped	-11.0054
Cookie	-11.006
▁greater	-11.0062
scan	-11.0071
vertex	-11.0072
INET	-11.0077
Inter	-11.0079
importer	-11.0081
Save	-11.0083
LU	-11.0086
(4)	-11.0086
▁('\	-11.0087
helpers	-11.0088
PER	-11.0088
[1:(-1)]	-11.0089
organization	-11.0089
▁click	-11.0091
obs	-11.0095
encoder	-11.0097
double	-11.0098
▁sender	-11.0101
backup	-11.0103
▁(3,	-11.0107
getter	-11.0117
▁digits	-11.0117
OF	-11.0132
hit	-11.0134
resize	-11.0139
AM	-11.0148
▁unpack	-11.0157
▁256	-11.0158
0000	-11.0159
describe	-11.0159
gather	-11.0163
-1)	-11.0169
▁4))	-11.0171
binding	-11.0174
▁specifies	-11.0178
currency	-11.0178
scene	-11.0178
▁anchor	-11.018
}\	-11.0183
tuples	-11.019
▁services	-11.0193
trail	-11.0193
geometry	-11.0193
flip	-11.0199
▁fid	-11.0201
lon	-11.0202
8')	-11.0203
▁delay	-11.0203
St	-11.0206
▁Model	-11.0209
'")	-11.0209
NA	-11.0214
CloudSystemExit	-11.0223
coverage	-11.0223
▁prime	-11.0225
▁tab	-11.0225
lhs	-11.0226
▁Message	-11.023
▁amount	-11.0231
question	-11.0235
metavar	-11.0235
Byte	-11.0242
Email	-11.0246
Replace	-11.0252
▁coord	-11.0256
gcd	-11.0258
policies	-11.0268
512	-11.0268
screen	-11.0268
virt	-11.0268
artifact	-11.027
epoch	-11.0272
tok	-11.0275
▁modify	-11.0281
▁trailing	-11.0283
▁still	-11.0284
▁gc	-11.0286
▁Node	-11.0298
roll	-11.0307
▁NetworkX	-11.0311
▁exec	-11.0312
Execute	-11.0313
health	-11.0313
/*	-11.0316
76	-11.0318
href	-11.0326
▁checked	-11.0328
duration	-11.0343
strategy	-11.0343
middleware	-11.0343
▁fast	-11.0343
try	-11.0344
inet	-11.0344
▁question	-11.0346
manage	-11.0352
-3	-11.0359
deepcopy	-11.0359
▁\'/	-11.0361
vote	-11.0362
▁mount	-11.0363
band	-11.0364
aspect	-11.0374
▁rval	-11.0374
para	-11.0376
▁lst	-11.0378
Callback	-11.038
▁Output	-11.0382
dl	-11.0385
▁dummy	-11.0388
pts	-11.0397
^{	-11.0398
cal	-11.0399
six	-11.0399
▁Course	-11.0404
gamma	-11.0405
▁resources	-11.0411
▁human	-11.042
geom	-11.042
intersection	-11.0422
attrib	-11.0422
keywords	-11.0426
IM	-11.0426
cnt	-11.0432
▁libvlc	-11.0433
Cloud	-11.0434
▁pixel	-11.0435
izing	-11.0435
▁ordered	-11.0437
exact	-11.0438
▁home	-11.0438
(5)	-11.0438
59	-11.044
topo	-11.0441
▁actually	-11.0442
05	-11.0442
▁priority	-11.0444
▁members	-11.045
EST	-11.0453
▁rev	-11.0455
notification	-11.0459
▁ct	-11.0461
assign	-11.0462
Col	-11.0463
Job	-11.0463
▁prec	-11.0463
AST	-11.0463
populate	-11.0465
Enable	-11.0465
microsecond	-11.047
95	-11.0486
▁agent	-11.0487
JSON	-11.0499
dirpath	-11.0502
phase	-11.0503
▁correctly	-11.0504
▁flow	-11.0507
arn	-11.0507
▁described	-11.051
▁layers	-11.0512
▁filtered	-11.0514
theme	-11.0518
TAG	-11.0519
▁recursive	-11.0522
snippet	-11.0526
▁POST	-11.0528
micro	-11.0532
▁conversion	-11.0535
Meta	-11.0536
▁'/'	-11.0537
recipient	-11.0541
embedding	-11.0542
locations	-11.0546
▁sr	-11.0552
discard	-11.0553
DOMAIN	-11.0557
discussion	-11.0557
extensions	-11.056
consumer	-11.0563
etree	-11.0563
migrate	-11.0573
leave	-11.0575
two	-11.058
▁cap	-11.0582
reserved	-11.0585
▁gamma	-11.0587
orientation	-11.0589
clf	-11.059
▁percent	-11.0597
picks	-11.0602
▁sec	-11.0602
SKIP	-11.0603
▁Group	-11.0605
cycle	-11.0609
▁retval	-11.0609
normpath	-11.0611
ABLE	-11.0615
▁successful	-11.0615
jac	-11.0615
schedule	-11.0624
runner	-11.0625
colon	-11.0629
▁plain	-11.0637
collect	-11.0638
baz	-11.0642
det	-11.0643
tcp	-11.0645
Raise	-11.0648
playlist	-11.0648
▁strides	-11.0649
▁small	-11.0649
almost	-11.0655
implementation	-11.0656
mkdir	-11.0657
54	-11.0657
-----	-11.0658
▁rng	-11.0659
{{	-11.0662
Deprecation	-11.0666
▁determined	-11.0668
▁design	-11.067
▁runs	-11.0678
InvocationError	-11.0681
Missing	-11.0681
predicate	-11.0681
▁coefficients	-11.0684
Step	-11.0684
listen	-11.0686
=100	-11.0689
▁reader	-11.0697
ietf	-11.07
delim	-11.0701
FT	-11.0701
broadcast	-11.0711
Plot	-11.0713
▁Http	-11.0718
▁matrices	-11.0721
▁'{}	-11.0721
▁unquote	-11.0723
absent	-11.0727
Fetch	-11.0729
▁probability	-11.0729
▁validation	-11.0729
del	-11.0731
▁translate	-11.0734
_404(	-11.0737
\\\\	-11.0738
since	-11.0738
▁upgrade	-11.074
▁sc	-11.0744
division	-11.0744
jenkins	-11.0744
utcnow	-11.0745
▁plural	-11.0745
team	-11.0746
sheet	-11.0754
annotations	-11.0755
Char	-11.0757
▁6,	-11.0759
Frame	-11.0759
Mon	-11.0761
▁DB	-11.0762
stim	-11.0767
Word	-11.0768
coef	-11.0768
▁Context	-11.0768
Tool	-11.0769
asset	-11.077
pow	-11.0775
TI	-11.0778
answer	-11.0785
Stack	-11.0792
ctr	-11.0793
1\'	-11.0807
Volume	-11.0807
cutoff	-11.0808
▁2*	-11.0812
▁identity	-11.0818
▁exact	-11.082
▁pat	-11.0827
redis	-11.083
▁tokenize	-11.0831
csr	-11.0834
CF	-11.0835
Comp	-11.0838
▁0.2	-11.0839
={}	-11.0841
▁hard	-11.0841
Mac	-11.0849
Channel	-11.0855
▁canonical	-11.0856
emb	-11.0856
▁days	-11.0859
▁[2,	-11.0861
__'):	-11.0869
▁prob	-11.0871
▁4):	-11.0879
docstring	-11.088
maximum	-11.0882
▁activity	-11.0884
netloc	-11.0886
▁[2]	-11.0889
▁indicates	-11.09
▁calculate	-11.0901
▁received	-11.0901
Environment	-11.0903
article	-11.0903
▁general	-11.0903
Package	-11.0903
▁These	-11.0918
']}	-11.0919
fake	-11.0924
▁pretty	-11.0935
▁vals	-11.0937
▁''))	-11.0939
share	-11.0941
ask	-11.0944
▁Content	-11.0946
Failure	-11.0951
direction	-11.0959
▁syntax	-11.0967
▁later	-11.0968
▁quota	-11.0969
▁Must	-11.0973
subset	-11.0975
plain	-11.0977
TS	-11.0981
▁chart	-11.0984
TABLE	-11.0993
TT	-11.0994
keyword	-11.0995
Require	-11.0996
HEAD	-11.0996
▁facts	-11.0999
surface	-11.0999
divide	-11.1003
finder	-11.1008
Accept	-11.1015
META	-11.1015
agg	-11.1018
▁depending	-11.102
gain	-11.1022
Out	-11.1026
▁gr	-11.103
closest	-11.1035
have	-11.1038
nova	-11.1046
blank	-11.1046
anchor	-11.1046
relationship	-11.1048
▁poly	-11.1048
])))	-11.1049
represent	-11.1051
▁Variable	-11.1053
VM	-11.1054
mgr	-11.1055
▁checking	-11.1061
ward	-11.1062
▁duration	-11.1065
1.5	-11.1066
▁Matrix	-11.1067
▁acc	-11.1072
Found	-11.1079
AB	-11.1084
pick	-11.1084
urllib	-11.1089
machine	-11.1096
terminal	-11.1097
quantity	-11.1098
▁successfully	-11.11
▁gl	-11.1101
alert	-11.1102
▁solve	-11.1108
509	-11.1112
correlation	-11.1113
▁0.5)	-11.1114
▁generic	-11.1116
▁measure	-11.1122
▁imported	-11.1123
allowed	-11.1126
cidr	-11.1128
▁certain	-11.1129
tup	-11.1129
annotation	-11.1137
▁creation	-11.1145
Generator	-11.1145
calendar	-11.1145
actual	-11.1146
[::(-1)]	-11.1146
49	-11.1152
▁cond	-11.1156
▁decoder	-11.1158
▁Symbol	-11.1159
denom	-11.1162
standard	-11.1163
flavor	-11.1163
preferred	-11.117
NULL	-11.1178
vocabulary	-11.1178
▁effect	-11.118
▁know	-11.1181
docker	-11.1182
▁'"')	-11.1183
▁preserve	-11.1191
dependent	-11.1192
statistic	-11.1193
▁Document	-11.1194
▁14	-11.1202
deep	-11.1205
▁subset	-11.1211
▁Pa	-11.1211
Render	-11.1212
lin	-11.1212
argspec	-11.1214
press	-11.122
▁'_')	-11.1221
▁cookies	-11.1228
▁mime	-11.1236
multipart	-11.124
argtypes	-11.1256
Settings	-11.1257
clause	-11.1261
creator	-11.1261
incoming	-11.1262
▁</	-11.1263
alive	-11.1263
▁sl	-11.1271
ttl	-11.1273
▁uid	-11.1273
wheel	-11.1277
▁duplicate	-11.1278
▁FROM	-11.1278
green	-11.1279
boot	-11.1279
043	-11.1283
cent	-11.1285
▁yet	-11.1285
Level	-11.1286
pause	-11.1288
79	-11.1293
Normalize	-11.1294
Box	-11.1295
▁exactly	-11.1297
scenario	-11.1298
▁plugins	-11.1298
▁OrderedDict	-11.13
SC	-11.1302
elements	-11.1305
▁iterations	-11.131
▁1-	-11.1311
Pattern	-11.1311
Account	-11.1315
han	-11.1315
previous	-11.1315
▁Event	-11.1319
▁validator	-11.132
▁FLAGS	-11.1324
cgi	-11.1326
58	-11.1326
[(0,	-11.1327
panel	-11.1327
Comment	-11.1328
silently	-11.1329
▁tasks	-11.1331
learning	-11.1331
song	-11.1335
Allow	-11.1337
▁adding	-11.1339
▁errno	-11.1342
▁expressions	-11.1342
closing	-11.1344
console	-11.1349
vertices	-11.1349
▁timedelta	-11.1354
▁phase	-11.1358
LANGUAGE	-11.1361
▁7)	-11.1362
mysql	-11.1366
dup	-11.1368
nonzero	-11.1375
Windows	-11.1377
▁qs	-11.1378
Collection	-11.1378
▁serial	-11.1386
shutdown	-11.1394
Sample	-11.1394
Entry	-11.1394
Seq	-11.1398
▁encoder	-11.1401
▁Sub	-11.1406
cont	-11.1412
▁[{'	-11.1412
'},	-11.1415
urn	-11.1416
89	-11.1416
▁Storage	-11.1416
▁quality	-11.1417
Wrap	-11.1417
VE	-11.1418
▁prepare	-11.1419
Core	-11.1428
accuracy	-11.1428
▁arbitrary	-11.1428
softmax	-11.1431
discover	-11.1431
XML	-11.1438
▁quotes	-11.144
▁0.0)	-11.1441
/<	-11.1442
undefined	-11.1445
interp	-11.1447
metrics	-11.1448
break	-11.1452
square	-11.1456
}{	-11.146
▁followed	-11.1461
▁std	-11.1464
gis	-11.1466
▁never	-11.1477
▁thing	-11.1477
ake	-11.1477
▁represent	-11.1483
4.0	-11.1488
▁vol	-11.1488
fixtures	-11.1488
Http	-11.1489
publish	-11.149
hexdigest	-11.1497
submit	-11.1498
MD	-11.1504
bins	-11.1505
decimal	-11.1506
▁SSL	-11.1508
sess	-11.1512
increment	-11.1512
Mapping	-11.1514
-8'))	-11.1515
ceil	-11.1517
small	-11.1523
▁contact	-11.1527
▁ir	-11.1527
DATE	-11.1529
▁become	-11.1532
▁pp	-11.1534
fh	-11.1542
Ho	-11.1544
newaxis	-11.1544
▁systems	-11.1547
▁cycle	-11.1558
OpenSSL	-11.156
coefficient	-11.1561
DS	-11.1561
twisted	-11.1564
singular	-11.1564
NUM	-11.1566
resolve	-11.157
5\	-11.1573
prepare	-11.1574
associate	-11.158
exam	-11.1588
milestone	-11.1598
DELETE	-11.1598
arc	-11.1602
Post	-11.1605
▁performed	-11.1609
subscribe	-11.161
▁[3,	-11.1613
▁ndim	-11.1613
▁dependency	-11.1614
▁routine	-11.1615
▁good	-11.1615
▁derivation	-11.1628
popen	-11.163
conflict	-11.1632
▁25	-11.1637
▁due	-11.1638
57	-11.1657
Auto	-11.1658
wave	-11.166
▁proj	-11.1661
phi	-11.1662
▁''}	-11.1666
Encoding	-11.1667
blue	-11.1667
87	-11.1671
nat	-11.1675
▁implemented	-11.1676
Unit	-11.1679
attach	-11.168
▁constructor	-11.1682
Builder	-11.1683
Adds	-11.1687
markdown	-11.1688
▁processing	-11.1691
▁did	-11.1694
imag	-11.1695
sqlite	-11.1696
▁entire	-11.1701
physical	-11.1701
variate	-11.1701
urlopen	-11.1707
▁working	-11.171
Optional	-11.1711
▁eps	-11.1714
frappe	-11.1714
+1	-11.1715
Verify	-11.1719
Range	-11.1719
serial	-11.1723
▁detected	-11.173
validator	-11.1732
98	-11.1732
=3)	-11.1733
opener	-11.1741
{"	-11.175
▁stdin	-11.1751
OO	-11.1753
RandomState	-11.1754
▁quiet	-11.1756
())):	-11.1758
album	-11.1768
Dec	-11.177
▁positional	-11.1776
▁describe	-11.1785
episode	-11.1785
draw	-11.1786
▁spatial	-11.1788
speed	-11.179
▁filepath	-11.1791
▁longer	-11.1799
▁crop	-11.1807
area	-11.1808
EM	-11.1814
▁separated	-11.1814
AND	-11.1817
queries	-11.1823
[:3]	-11.1824
Option	-11.1825
▁arch	-11.1829
clock	-11.1838
UTF	-11.1839
stem	-11.1841
EMAIL	-11.1841
('{0}	-11.1843
▁expires	-11.1847
▁give	-11.1849
4]	-11.1854
way	-11.1856
Project	-11.1858
▁accepted	-11.1865
▁learning	-11.1871
▁WSGI	-11.1871
cleaned	-11.1872
imdb	-11.1872
CLASS	-11.1876
canvas	-11.1877
▁operations	-11.1884
ini	-11.1892
Like	-11.1893
▁GET	-11.1895
▁primary	-11.1902
moving	-11.1908
Internal	-11.1911
▁coeff	-11.1913
▁locations	-11.1914
Wait	-11.192
geo	-11.1921
Define	-11.1929
cohort	-11.1929
Computes	-11.1934
▁zeros	-11.1944
▁variance	-11.1945
!')	-11.1945
)))))	-11.1945
netrc	-11.195
we	-11.196
▁YAML	-11.1961
hello	-11.1964
He	-11.1966
▁outside	-11.1972
slave	-11.1972
=3,	-11.1975
▁si	-11.198
piece	-11.1981
Virtual	-11.1982
Decimal	-11.1982
separated	-11.1984
▁none	-11.1985
expanduser	-11.1991
hard	-11.1992
Reg	-11.1993
▁executed	-11.2006
validation	-11.2007
game	-11.2008
sensitive	-11.2011
▁HAS	-11.2021
art	-11.2024
▁There	-11.2026
chainer	-11.203
changeset	-11.2031
'{0}	-11.2032
▁Support	-11.2034
organisation	-11.2036
78	-11.2037
urlparse	-11.2039
Zone	-11.2042
▁comparison	-11.2049
entropy	-11.2054
unused	-11.2058
Intersection	-11.2073
▁Access	-11.2073
▁accepts	-11.2075
▁Array	-11.208
urlencode	-11.2088
fopen	-11.2089
inherit	-11.209
Library	-11.209
roidb	-11.209
acc	-11.2092
radius	-11.2093
▁logged	-11.2093
▁drop	-11.2098
▁act	-11.2104
addresses	-11.2104
▁aliases	-11.2106
estimator	-11.2112
boundary	-11.2113
specified	-11.2115
TEXT	-11.2117
soft	-11.2123
compare	-11.2128
▁pixels	-11.2132
hop	-11.2138
▁docs	-11.2139
authenticate	-11.214
▁represented	-11.214
▁computation	-11.2144
▁rc	-11.2145
...')	-11.2146
▁specification	-11.2152
forum	-11.2156
ftp	-11.2158
Protocol	-11.2162
reboot	-11.2165
fresh	-11.2165
▁categories	-11.2167
-10	-11.2171
▁chars	-11.2178
just	-11.2179
Yield	-11.218
▁simply	-11.218
▁respect	-11.218
smooth	-11.2183
▁DataFrame	-11.2184
tenant	-11.2187
▁ASCII	-11.2192
ISO	-11.2192
32')	-11.2195
many	-11.2195
Password	-11.2196
regression	-11.2198
squeeze	-11.2198
COM	-11.2198
▁together	-11.2198
▁reply	-11.2198
ori	-11.2205
poll	-11.2206
▁signed	-11.2212
▁tabs	-11.2213
▁rather	-11.2216
morsel	-11.222
Can	-11.2226
diagonal	-11.2235
▁mapped	-11.2236
▁taken	-11.2241
talib	-11.2241
upgrade	-11.2244
▁DNS	-11.2248
▁href	-11.2249
▁restart	-11.225
rsa	-11.2255
aux	-11.2269
WARNING	-11.2271
▁share	-11.2272
ale	-11.2272
Hash	-11.2272
morph	-11.2272
ML	-11.2278
sentence	-11.228
▁22	-11.2281
prep	-11.2283
▁residual	-11.2286
▁13	-11.2286
Parses	-11.2287
keypoints	-11.2297
HTML	-11.2298
▁hyper	-11.2298
][0]	-11.2304
compressed	-11.2306
▁copied	-11.2308
rng	-11.2309
hashes	-11.2316
pep	-11.2316
▁coordinate	-11.2316
Dictionary	-11.2317
▁vertices	-11.2321
confirm	-11.2343
▁processor	-11.2345
▁issubclass	-11.2345
GC	-11.2346
PRE	-11.2347
▁unittest	-11.2347
▁segments	-11.2355
▁provides	-11.2364
▁cp	-11.2373
▁0.9	-11.2375
▁phi	-11.2378
▁reading	-11.2381
Attempt	-11.2382
ROOT	-11.2382
▁capture	-11.2382
▁gives	-11.2385
cookies	-11.2388
▁passing	-11.2389
▁optionally	-11.2391
destination	-11.2392
▁iface	-11.2393
▁Server	-11.2395
acquire	-11.24
Role	-11.2401
mime	-11.2404
Setting	-11.2405
Window	-11.2405
▁sleep	-11.2408
pieces	-11.2409
▁processed	-11.2416
theta	-11.2417
FIELD	-11.2419
Maximum	-11.2419
sound	-11.2421
ordered	-11.2421
▁Traceback	-11.2425
='<	-11.2432
▁AND	-11.2437
Current	-11.2438
%02	-11.2442
Part	-11.2443
precision	-11.2449
boolean	-11.2449
▁factors	-11.2451
lxc	-11.2462
▁fh	-11.2463
elt	-11.2465
external	-11.2468
▁tenant	-11.2469
thumbnail	-11.2475
▁instantiat	-11.2475
quality	-11.2478
▁bins	-11.2486
Timeout	-11.2487
loglevel	-11.249
▁Boolean	-11.2492
▁external	-11.25
prefixes	-11.2504
compatible	-11.2507
▁assignment	-11.2509
Safe	-11.2513
passphrase	-11.2513
▁throw	-11.2514
photo	-11.2515
setuptools	-11.2515
Var	-11.2518
46	-11.252
minimum	-11.2526
inverse	-11.2526
Extension	-11.2531
communicate	-11.2531
▁metrics	-11.2533
▁album	-11.2535
stuff	-11.2541
HTTPError	-11.2546
treeio	-11.2559
▁pointer	-11.2562
air	-11.2565
normalized	-11.2565
[5]	-11.2567
SCRIPT	-11.2569
▁pred	-11.2569
crypt	-11.2571
sphere	-11.2574
Integer	-11.2584
quoted	-11.2588
mri	-11.2591
▁cookiejar	-11.2592
hand	-11.2594
publisher	-11.2598
▁New	-11.2598
▁player	-11.2602
deferred	-11.2603
Back	-11.2603
▁alternative	-11.2603
▁assign	-11.2604
TestCase	-11.2609
[3])	-11.2615
hint	-11.2615
vo	-11.2616
finished	-11.2617
authorized	-11.2618
[1:	-11.262
Matrix	-11.2622
prec	-11.2622
quiet	-11.2624
▁wrong	-11.2626
▁curses	-11.2626
inp	-11.2637
]+	-11.264
EXT	-11.2644
mirror	-11.2645
stc	-11.2649
disabled	-11.2651
Full	-11.2654
CI	-11.2654
cart	-11.266
tokenizer	-11.2661
curve	-11.2661
audio	-11.2661
scipy	-11.2661
SSL	-11.2663
▁angle	-11.2664
▁AWS	-11.2666
▁bind	-11.2667
▁digit	-11.2673
uni	-11.2683
BadRequest	-11.2684
▁elementNode	-11.2689
blacklist	-11.269
▁3],	-11.2692
realm	-11.2707
squared	-11.2709
expires	-11.2713
cross	-11.2717
97	-11.2719
▁combination	-11.2721
Close	-11.2721
▁Multi	-11.2721
▁minutes	-11.2724
▁jobs	-11.2725
optionflags	-11.2732
MENT	-11.2738
ONE	-11.2743
constants	-11.2753
Stop	-11.2755
preprocess	-11.2757
saltenv	-11.2757
star	-11.2757
character	-11.2759
▁hooks	-11.276
▁resize	-11.2768
▁exponent	-11.2776
parametrize	-11.2779
wikipedia	-11.2779
program	-11.2779
inputnode	-11.2779
1234	-11.278
FileName	-11.2783
tabs	-11.2789
ency	-11.279
CM	-11.2795
▁flavor	-11.2797
Dummy	-11.2798
chi	-11.2801
▁gf	-11.2802
Args	-11.2802
▁anything	-11.2803
▁consider	-11.2804
facts	-11.2814
▁prior	-11.2817
summaries	-11.2817
formatter	-11.2819
▁indicate	-11.2829
▁tmin	-11.2835
▁big	-11.2836
SOCK	-11.2837
6\	-11.2845
Params	-11.2849
▁pending	-11.285
oid	-11.2851
▁estimator	-11.2852
▁cpu	-11.2858
multiple	-11.2858
▁scaling	-11.2858
openid	-11.2859
▁kb	-11.2859
Dataset	-11.2864
Using	-11.2867
TCP	-11.287
got	-11.2871
LIST	-11.2872
93	-11.2877
Dumper	-11.2879
▁please	-11.288
export	-11.2888
adm	-11.2892
VALUE	-11.2895
▁Item	-11.2897
(10,	-11.2914
Mul	-11.2916
▁Requires	-11.2918
▁started	-11.2931
▁3.0	-11.2931
▁csv	-11.2932
▁binding	-11.2933
Center	-11.2935
▁finder	-11.2939
sudo	-11.2941
Segment	-11.2949
▁subscription	-11.2953
balancer	-11.2954
cipher	-11.2958
decrypt	-11.2964
▁gateway	-11.2969
▁scenario	-11.2969
▁reject	-11.2971
300	-11.2972
dotted	-11.2973
38	-11.2973
▁pipe	-11.2974
▁reversed	-11.2975
Provide	-11.2977
ValidationError	-11.2993
writable	-11.2993
critical	-11.2993
Train	-11.2994
contains	-11.2998
2016	-11.3001
adv	-11.3009
▁roles	-11.301
mission	-11.3011
kit	-11.3012
dictionary	-11.3018
8\	-11.3019
euclidean	-11.3033
visual	-11.3033
membership	-11.3033
trial	-11.3034
Win	-11.3038
requirements	-11.3038
▁const	-11.304
recv	-11.304
73	-11.3044
=10)	-11.3052
balance	-11.3052
multiplier	-11.3053
▁OAuth	-11.3054
deadline	-11.3055
▁bottom	-11.3065
84	-11.3066
daemon	-11.3072
consul	-11.3073
▁episode	-11.3075
stage	-11.3081
▁fingerprint	-11.3088
▁rgb	-11.3091
`).	-11.3094
systemd	-11.31
ARCH	-11.3109
pyplot	-11.3111
▁reach	-11.3117
CHAR	-11.3119
indexes	-11.3121
▁floating	-11.3125
histogram	-11.3132
generation	-11.3132
signed	-11.3137
even	-11.3137
super	-11.3138
LIB	-11.314
preview	-11.3142
▁symbolic	-11.3149
experiment	-11.3152
▁palette	-11.3155
TYPES	-11.3155
▁epsilon	-11.3156
▁Pass	-11.3157
]+)	-11.3163
000000	-11.3169
Engine	-11.3172
▁stub	-11.3176
UL	-11.3185
autoescape	-11.3187
001	-11.3187
legend	-11.3192
▁gt	-11.3196
▁detect	-11.32
contextmanager	-11.3208
inline	-11.3212
sqlalchemy	-11.3212
Domain	-11.3214
▁extended	-11.3215
▁Pre	-11.3218
>%	-11.3221
▁describ	-11.3224
fac	-11.3225
Flag	-11.3232
integration	-11.3233
82	-11.3242
▁hashlib	-11.3243
▁things	-11.3249
▁prevent	-11.325
▁happen	-11.3252
▁statistics	-11.3256
▁enter	-11.3257
FA	-11.3259
▁middle	-11.3263
primary	-11.3263
94	-11.3267
▁boot	-11.3269
Include	-11.3273
smtp	-11.3273
▁stripped	-11.3274
></	-11.3275
serializers	-11.3277
▁explicit	-11.3277
remainder	-11.3282
Reader	-11.3286
▁Google	-11.3286
LOCAL	-11.3293
special	-11.3295
▁1])	-11.3297
ality	-11.3305
virtualenv	-11.3311
▁docker	-11.3313
▁properly	-11.3316
▁alphabet	-11.3325
priv	-11.333
;\	-11.3333
Float	-11.3334
▁fully	-11.3334
though	-11.3335
GA	-11.3349
xyz	-11.3351
libraries	-11.3354
keystone	-11.3355
Com	-11.336
formula	-11.3362
ccx	-11.3362
firewall	-11.3375
▁derivative	-11.3375
circle	-11.3375
Cfunction	-11.3378
▁sess	-11.3388
here	-11.3388
▁requirements	-11.339
STATUS	-11.3395
▁pprint	-11.3396
virtualname	-11.34
nobs	-11.3402
UI	-11.3403
▁again	-11.3406
when	-11.3409
inspect	-11.341
Product	-11.3416
lh	-11.3418
▁transfer	-11.3422
+')	-11.3422
▁asset	-11.3427
internet	-11.343
grant	-11.3432
00.0)	-11.3435
▁basename	-11.3436
spawn	-11.3436
TODO	-11.3437
noise	-11.3438
expect	-11.3438
known	-11.3443
OUT	-11.3445
Results	-11.3445
▁rhs	-11.3446
configured	-11.345
▁oc	-11.3455
manual	-11.3458
alignment	-11.3459
chat	-11.3471
parallel	-11.3472
categories	-11.3472
matching	-11.3473
0.8	-11.3474
▁"{0}"	-11.3478
▁review	-11.3487
▁compress	-11.3488
orm	-11.3499
▁launch	-11.3504
▁exog	-11.3505
▁etag	-11.3508
▁Mock	-11.351
▁runtime	-11.3514
quot	-11.3521
getLogger	-11.3523
rotate	-11.3528
▁skipped	-11.3532
unittest	-11.3532
Entity	-11.354
SITE	-11.354
▁cleanup	-11.3546
READ	-11.3546
want	-11.3548
▁turn	-11.3555
▁outfile	-11.3555
Buffer	-11.3561
Formatter	-11.3564
43	-11.3565
▁transformation	-11.3567
▁downloaded	-11.3568
generic	-11.3578
desktop	-11.3582
credit	-11.3583
etag	-11.3584
endog	-11.3585
Cfunctions	-11.3585
shp	-11.3592
Apply	-11.3593
getcwd	-11.3598
=10,	-11.3601
▁nobs	-11.3601
▁beginning	-11.3603
quick	-11.3603
▁much	-11.3607
▁nodelist	-11.3608
avi	-11.361
rect	-11.3614
▁person	-11.3616
latex	-11.3621
PYTHON	-11.3624
spam	-11.3627
strong	-11.3629
pth	-11.3637
legacy	-11.3645
Skip	-11.3645
▁UTF	-11.3646
Resolve	-11.3649
▁vocab	-11.3657
ij	-11.3659
▁255)	-11.3661
plural	-11.3664
VALID	-11.3665
Blob	-11.3666
mixed	-11.3673
▁iteration	-11.3675
▁deployment	-11.3675
%2	-11.3678
black	-11.3679
▁fallback	-11.3679
Access	-11.3686
LooseVersion	-11.3687
cleanup	-11.3689
▁tmax	-11.3694
▁defines	-11.3695
onvenience	-11.3708
qualified	-11.3708
hparams	-11.371
▁represents	-11.372
SIG	-11.3723
▁choose	-11.3727
quota	-11.3729
Escape	-11.3729
purge	-11.3729
Begin	-11.3729
unlink	-11.373
GE	-11.3737
svc	-11.3738
allocate	-11.3739
2000	-11.3742
▁And	-11.3742
0.3	-11.3747
▁mk	-11.3749
▁chosen	-11.375
▁interpreted	-11.375
oh	-11.3751
▁((1,),	-11.3751
without	-11.3755
pending	-11.3757
Ver	-11.3759
▁1024)	-11.3762
AGE	-11.3763
Merge	-11.3772
declare	-11.3773
floor	-11.3773
Backend	-11.3774
▁directed	-11.3778
▁directive	-11.3785
▁pull	-11.3787
▁consist	-11.3791
▁encountered	-11.3793
cuda	-11.3794
samp	-11.3797
▁1000)	-11.3804
▁repeat	-11.3806
\',\'	-11.3807
pyc	-11.3807
74	-11.3809
selected	-11.3813
spacing	-11.3814
Encoder	-11.3815
quad	-11.3815
recursive	-11.3816
▁expanded	-11.3818
▁compatibility	-11.3821
▁closed	-11.3822
▁enc	-11.3828
Report	-11.3831
('.',	-11.3838
readlines	-11.384
▁mimetype	-11.384
▁Will	-11.3841
-8',	-11.3845
Last	-11.3848
RC	-11.3851
reactor	-11.386
▁persist	-11.3865
rst	-11.3867
▁smaller	-11.3867
transport	-11.3868
Identity	-11.387
0.9	-11.3873
cpp	-11.3874
▁independent	-11.3874
[0][0]	-11.3889
mutable	-11.3892
intercept	-11.39
rmtree	-11.3903
Api	-11.3903
gradient	-11.3904
▁unexpected	-11.3907
losses	-11.3909
large	-11.391
▁follows	-11.3921
52	-11.3921
eth	-11.3924
▁interpolation	-11.3928
▁classifier	-11.3933
▁poll	-11.3936
▁background	-11.3939
=======	-11.3943
▁audio	-11.3946
latin	-11.3956
ctypes	-11.3957
Script	-11.3965
integral	-11.3965
▁StopIteration	-11.3965
Root	-11.3965
Direct	-11.3965
▁across	-11.3969
▁opened	-11.398
restore	-11.3982
architecture	-11.3987
▁Unix	-11.3988
until	-11.3992
1\',	-11.3993
▁compatible	-11.3994
▁absent	-11.4001
quit	-11.4004
▁pandas	-11.4004
composite	-11.4009
▁hint	-11.4009
theano	-11.4015
▁conditions	-11.4018
▁memo	-11.4029
TEMPLATE	-11.403
Secret	-11.4031
TIMEOUT	-11.4031
ansible	-11.4034
separator	-11.4037
whitespace	-11.4038
>\'	-11.4043
loaded	-11.4046
apache	-11.4052
Multiple	-11.4053
dimension	-11.4059
▁grant	-11.406
Lib	-11.406
fwd	-11.4061
fold	-11.4061
('@'	-11.407
interpreter	-11.4074
▁transport	-11.4078
▁theme	-11.409
Linear	-11.4092
MM	-11.4095
▁conditional	-11.4098
deriv	-11.41
Serialize	-11.4101
▁Po	-11.4109
restart	-11.4111
▁aggregate	-11.4115
Clean	-11.4118
Diff	-11.4121
qual	-11.4129
▁corner	-11.4129
▁optimize	-11.4134
VAR	-11.4139
phrase	-11.4139
angular	-11.414
▁indexes	-11.4141
[:1]	-11.4143
eye	-11.4151
wcs	-11.4159
▁formatter	-11.4159
UM	-11.416
builtins	-11.4161
▁padded	-11.4165
returncode	-11.4166
3.0	-11.4168
▁Jenkins	-11.4185
▁geo	-11.4185
polygon	-11.4185
LOAD	-11.4185
zpool	-11.4193
framework	-11.4196
packet	-11.42
▁fwd	-11.4201
union	-11.4202
▁2015.8.0	-11.4208
ACE	-11.4215
▁rtol	-11.4216
mlp	-11.4224
aliases	-11.4231
DecodeError	-11.4237
('&	-11.4237
Prefix	-11.4242
▁preprocess	-11.4254
[\\	-11.4258
▁density	-11.4258
MNE	-11.4267
▁evaluation	-11.4274
mongo	-11.4275
▁border	-11.4279
▁realm	-11.4282
▁workflow	-11.4283
zz	-11.4287
caption	-11.4295
pull	-11.4295
Cluster	-11.4296
LAYER	-11.4296
EEG	-11.4297
Normal	-11.4297
▁permutation	-11.4298
▁stage	-11.4299
numeric	-11.43
▁atol	-11.4317
rollback	-11.432
▁ordering	-11.432
closed	-11.4321
▁compression	-11.4321
▁Integer	-11.4324
Take	-11.4327
algo	-11.4334
embed	-11.4338
Policy	-11.4341
bem	-11.4342
(.*)	-11.4346
HEADER	-11.4346
Media	-11.4349
pixel	-11.4355
arduino	-11.4364
▁'>>>	-11.4364
triple	-11.4369
▁atom	-11.437
percentile	-11.4371
Initialize	-11.4374
unc	-11.4376
10000	-11.4379
▁inference	-11.4386
prov	-11.439
hide	-11.439
indicator	-11.4407
▁campaign	-11.4408
xxx	-11.4408
substitution	-11.4409
▁Either	-11.4409
runas	-11.441
Compile	-11.441
▁boxlist	-11.4412
3.5	-11.4414
▁shuffle	-11.4418
bio	-11.4419
mass	-11.4445
▁theta	-11.4445
600	-11.4451
TOOLS	-11.4455
Figure	-11.4455
Val	-11.4459
demo	-11.4462
▁vim	-11.4474
Please	-11.4475
[:(-	-11.4476
Detect	-11.4477
▁Qt	-11.4485
unquote	-11.4487
REG	-11.4487
▁minor	-11.4492
directories	-11.4494
MB	-11.4498
Obj	-11.45
▁5]	-11.4514
directed	-11.4515
calc	-11.4516
fault	-11.4521
Main	-11.4526
51	-11.4531
([])	-11.4542
▁Theano	-11.4547
92	-11.4548
▁whole	-11.4549
ERS	-11.4549
▁completed	-11.4549
▁bounding	-11.4555
Real	-11.4556
▁0.3	-11.4566
rfind	-11.4567
pseudo	-11.4569
Expression	-11.4569
▁recommended	-11.4569
Second	-11.4569
recipients	-11.457
▁meaning	-11.4575
Modified	-11.4576
converter	-11.458
snap	-11.4584
▁sfreq	-11.4588
SOURCE	-11.4592
▁relation	-11.4602
▁0.4	-11.4602
▁possibly	-11.4607
truth	-11.4616
endian	-11.4616
Rule	-11.4617
69	-11.4618
beacon	-11.462
runtime	-11.4625
▁calculated	-11.4625
hemi	-11.4632
caller	-11.4636
Batch	-11.4636
misc	-11.4637
ko	-11.4638
Distribution	-11.4639
sklearn	-11.4639
▁codecs	-11.4639
invoke	-11.464
▁weighted	-11.4641
nbits	-11.4641
More	-11.4642
Sum	-11.4643
overlaps	-11.4644
▁depends	-11.4645
Database	-11.4647
NE	-11.4659
circuit	-11.4662
Space	-11.4662
▁processes	-11.4665
▁vdi	-11.4666
▁deviation	-11.4685
▁Specify	-11.4685
coerce	-11.4685
Angle	-11.4686
ode	-11.4688
▁Poly	-11.4696
Turn	-11.4707
scaling	-11.4708
dilation	-11.4709
bank	-11.471
take	-11.4726
postgres	-11.4729
boxlist	-11.473
▁various	-11.4732
expiration	-11.4732
integrate	-11.4732
▁CPU	-11.4733
abstract	-11.4736
▁UTC	-11.4738
Sort	-11.4739
credential	-11.4747
▁Tuple	-11.4755
activation	-11.4755
frequencies	-11.4756
dhcp	-11.4756
SUB	-11.4756
FE	-11.4758
Zero	-11.4759
decoder	-11.4771
replication	-11.478
isdigit	-11.4783
PUT	-11.4802
vel	-11.4802
▁WHERE	-11.4803
dipole	-11.4803
each	-11.4804
▁proxies	-11.4806
▁Useful	-11.4806
gui	-11.482
criterion	-11.4826
nick	-11.4826
Mod	-11.4835
&#	-11.4838
atomic	-11.4844
monic	-11.4845
survey	-11.485
difference	-11.4851
subscription	-11.4851
▁\'/\'	-11.4853
▁disp	-11.4859
slot	-11.4859
-05	-11.4862
[1]]	-11.4868
Upload	-11.487
fileno	-11.4871
jail	-11.4874
basis	-11.4876
▁explicitly	-11.4877
▁incorrect	-11.4886
Bit	-11.4886
▁CookieJar	-11.4887
gyp	-11.4888
▁AssertionError	-11.489
aug	-11.4892
traverse	-11.4898
▁SystemExit	-11.4898
regularizer	-11.4898
detect	-11.4898
▁omitted	-11.4899
amount	-11.4907
('/',	-11.4912
grain	-11.4915
FilePath	-11.4918
analysis	-11.4921
exclusive	-11.4921
Logging	-11.4922
Clear	-11.4922
confidence	-11.4922
▁addition	-11.4928
variance	-11.4938
consistent	-11.4944
Child	-11.4945
instrument	-11.4945
Offset	-11.4945
Metadata	-11.496
primitive	-11.4969
▁VPC	-11.4969
dll	-11.497
=(-1))	-11.4971
=5)	-11.4971
▁installation	-11.4981
REQUEST	-11.4993
interpolate	-11.4993
PASSWORD	-11.4993
Track	-11.4994
frozen	-11.5017
▁UUID	-11.5017
STATE	-11.5018
sanitize	-11.5018
▁multiprocessing	-11.5018
▁rotation	-11.5018
Constant	-11.5018
processors	-11.5019
cdf	-11.502
▁dsk	-11.5023
▁suppress	-11.5023
Tri	-11.5025
▁excluded	-11.5026
WIN	-11.5034
---	-11.5035
▁compiled	-11.5037
62	-11.504
MODULE	-11.5042
▁However	-11.5042
printable	-11.5056
▁corresponds	-11.5057
what	-11.506
Limit	-11.5066
linspace	-11.5067
▁abort	-11.5071
7\	-11.5078
capitalize	-11.509
matplotlib	-11.5097
authorization	-11.5099
hmac	-11.51
▁'*')	-11.5108
AttributeError	-11.5108
alloc	-11.5113
Edit	-11.5116
RESTful	-11.5139
facility	-11.5139
▁MIME	-11.5139
sigmoid	-11.5139
▁Keyword	-11.5145
guess	-11.5146
▁Bio	-11.5148
secs	-11.5162
criteria	-11.5163
After	-11.5165
%%	-11.5166
▁QQ	-11.5171
=1.0,	-11.5171
locator	-11.5175
coo	-11.5178
▁evaluated	-11.5179
chdir	-11.5183
uction	-11.5186
darwin	-11.5188
ull	-11.5194
frequency	-11.5196
▁formatting	-11.5198
('=')	-11.5202
▁higher	-11.5206
▁projection	-11.5208
START	-11.5212
▁stdscr	-11.5212
embedded	-11.5212
▁debugging	-11.5212
▁writing	-11.5218
▁treated	-11.5219
▁come	-11.5223
plat	-11.5231
sabnzbd	-11.5237
circular	-11.5237
discrete	-11.5237
Since	-11.5237
minimal	-11.524
COMP	-11.524
▁Should	-11.5244
Runner	-11.5259
.*?	-11.5264
arity	-11.5281
ipython	-11.5282
positive	-11.5297
netmask	-11.5302
published	-11.5306
operand	-11.5311
▁subdir	-11.5314
distro	-11.5322
mesh	-11.5326
CR	-11.5327
Pack	-11.5328
lam	-11.5329
Language	-11.5336
Generic	-11.5336
Running	-11.5336
▁linenum	-11.5349
instructor	-11.5362
▁serialized	-11.5363
editable	-11.5369
hl	-11.5369
formatted	-11.537
Hub	-11.537
('?'	-11.5371
Unicode	-11.5374
middle	-11.5374
▁'1'	-11.5376
processor	-11.5379
822	-11.5385
bipartite	-11.5386
▁differ	-11.5387
▁distutils	-11.5396
Over	-11.5396
Example	-11.5399
Foo	-11.5402
more	-11.5404
synchronous	-11.5411
▁enough	-11.5411
centrality	-11.5412
IOError	-11.5414
deployment	-11.5428
▁receive	-11.5433
collapse	-11.5436
enroll	-11.5445
▁larger	-11.5447
finish	-11.5448
▁proper	-11.5456
Schema	-11.5461
Hello	-11.5461
▁performance	-11.5463
pointer	-11.5474
glance	-11.5478
Logger	-11.5483
constructor	-11.5484
▁Okay	-11.5487
▁several	-11.5487
▁2016.3.0	-11.5512
Container	-11.5515
▁recursively	-11.5517
Exit	-11.5521
qr	-11.5524
coordinate	-11.5528
remaining	-11.5528
dag	-11.5535
Timestamp	-11.5537
ALIAS	-11.5537
tarball	-11.5538
Permission	-11.5538
Admin	-11.554
Quote	-11.5563
Socket	-11.5563
LENGTH	-11.5563
[...,	-11.5565
vuln	-11.5566
always	-11.558
*\\	-11.5585
slash	-11.5586
TOKEN	-11.5588
modifier	-11.5588
denied	-11.5588
doctest	-11.5594
VARS	-11.5597
Storage	-11.5606
evaluate	-11.5607
unix	-11.5612
chmod	-11.562
adj	-11.5622
bench	-11.5628
tower	-11.5628
octet	-11.564
tex	-11.5647
approve	-11.5654
exog	-11.5662
caffe	-11.5665
recurse	-11.5666
8601	-11.5667
((1.0	-11.5668
minor	-11.5676
▁four	-11.568
csd	-11.5687
third	-11.5691
distribute	-11.5691
Same	-11.5692
▁{}}	-11.5693
▁itertools	-11.5694
randn	-11.5696
overwrite	-11.5696
national	-11.5699
underscore	-11.5702
hw	-11.5705
rho	-11.5708
DataFrame	-11.5713
ace	-11.5715
replica	-11.5726
Security	-11.5743
Classifier	-11.5743
▁lowercase	-11.5745
eigh	-11.5749
exist	-11.5763
seen	-11.5764
effect	-11.5764
GL	-11.5767
▁remain	-11.5767
Width	-11.5769
argmax	-11.5773
Temp	-11.5774
▁obtain	-11.5782
byref	-11.5784
``).	-11.5785
palette	-11.5791
Sensor	-11.5795
attention	-11.5795
tweet	-11.5795
vendor	-11.5796
Scale	-11.58
prefetch	-11.5811
queryset	-11.5816
canonical	-11.5819
napalm	-11.5821
denominator	-11.5821
Folder	-11.5821
respond	-11.5826
Manage	-11.5834
▁preload	-11.5841
150	-11.5846
Radius	-11.5847
chapter	-11.5847
▁restricted	-11.5847
▁paragraph	-11.5847
▁Currently	-11.5847
▁holding	-11.5848
creds	-11.5866
svd	-11.5869
human	-11.5871
HAS	-11.5872
specifier	-11.5873
Controller	-11.5874
rational	-11.5877
||	-11.5878
bz	-11.5884
sympy	-11.5885
setLevel	-11.5886
reversed	-11.5891
east	-11.5893
Authorization	-11.59
SERVICE	-11.59
paginator	-11.59
vdi	-11.59
strptime	-11.5901
▁converge	-11.5904
'|'	-11.5906
vertno	-11.5909
Fake	-11.5919
MEG	-11.5922
implicit	-11.5926
atom	-11.5938
Scan	-11.5944
arp	-11.5945
possible	-11.5952
foreign	-11.5953
relation	-11.5962
fully	-11.5969
bracket	-11.5979
Style	-11.5979
audit	-11.5979
PACK	-11.5979
URI	-11.598
TRAIN	-11.5984
(0.0,	-11.6004
▁JsonResponse	-11.6006
▁having	-11.6006
creation	-11.6007
arrow	-11.6007
ckan	-11.6007
Minus	-11.6007
NaN	-11.6007
▁argparse	-11.6008
FL	-11.6011
Course	-11.6031
localtime	-11.6032
supply	-11.6032
▁further	-11.6032
▁respectively	-11.6032
NET	-11.6032
detach	-11.6033
dummy	-11.6034
Sync	-11.6034
▁classification	-11.604
**3	-11.6041
company	-11.6054
trunc	-11.6057
promo	-11.6059
XXX	-11.6059
dependency	-11.6061
▁initialized	-11.6062
music	-11.6065
Fix	-11.6068
trash	-11.6069
coroutine	-11.6086
▁CRUD	-11.6086
Widget	-11.6088
adap	-11.6091
81	-11.6092
realpath	-11.6093
Term	-11.6098
simp	-11.6103
▁appended	-11.6107
:(-1)]	-11.6112
▁predictions	-11.6113
maintenance	-11.6113
propagate	-11.6113
▁1}	-11.6114
71	-11.6115
broadcastable	-11.6116
Global	-11.614
analyze	-11.614
Compare	-11.614
Transaction	-11.6142
aggregate	-11.6143
coding	-11.6144
Stat	-11.6146
functional	-11.6151
fraction	-11.6153
MESSAGE	-11.6167
▁qtbot	-11.6167
Usage	-11.6171
▁ready	-11.6175
[('%	-11.619
▁Gaussian	-11.6194
reflect	-11.6194
nested	-11.6199
Join	-11.6207
('-')	-11.6217
hierarchy	-11.6221
corpus	-11.6221
groundtruth	-11.6221
except	-11.6224
192	-11.6228
2.1	-11.6231
(10)	-11.6237
91	-11.6241
boundaries	-11.6248
gcodeText	-11.6248
ONLY	-11.625
assignment	-11.6256
ADD	-11.626
tls	-11.6263
6.0	-11.6272
0.7	-11.6272
See	-11.6273
▁('/'	-11.6273
party	-11.628
svn	-11.628
similarity	-11.6281
cachedir	-11.6286
'+'	-11.6295
jpeg	-11.6303
transition	-11.6303
▁usually	-11.6304
▁-->	-11.631
needed	-11.631
psd	-11.6311
avail	-11.6312
derivation	-11.6313
▁succeed	-11.633
giving	-11.6331
aware	-11.6332
NetworkXError	-11.6335
Unsupported	-11.6339
slashes	-11.6339
443	-11.6352
▁contained	-11.6354
/../../	-11.6358
▁predicted	-11.6359
ldap	-11.6361
curdir	-11.6366
uff	-11.6367
guest	-11.6369
must	-11.637
quo	-11.6385
▁Distutils	-11.6386
▁making	-11.6386
▁probably	-11.6386
athlete	-11.6386
CERT	-11.6386
Single	-11.6388
xff	-11.6389
optimize	-11.6392
▁extracted	-11.6395
floatX	-11.6396
rar	-11.6399
decim	-11.6413
▁displayed	-11.6416
grep	-11.642
ASCII	-11.6423
directive	-11.6425
83	-11.6432
▁affect	-11.6441
▁psz	-11.6444
grammar	-11.6469
zmq	-11.6469
▁normalization	-11.6471
written	-11.648
▁GMT	-11.6497
Both	-11.6497
REQUIRED	-11.6498
=4)	-11.6499
("'"	-11.6502
Enum	-11.6509
expo	-11.6509
rick	-11.6511
extent	-11.6523
continuous	-11.6525
license	-11.6525
▁immediately	-11.6525
▁combined	-11.6526
+\\	-11.6532
Endpoint	-11.654
serv	-11.6545
DNS	-11.6563
Mock	-11.6566
2015	-11.6569
Topic	-11.6582
Debug	-11.6583
javascript	-11.6583
▁approximation	-11.6609
METHOD	-11.6609
▁applies	-11.6609
COMMENT	-11.661
Short	-11.661
syslog	-11.6611
parsing	-11.6624
formset	-11.6626
Remote	-11.6638
eyboardInterrupt	-11.6638
anonymous	-11.6638
thumb	-11.6638
zabbix	-11.6638
ordinal	-11.6638
LIMIT	-11.6638
ParseError	-11.6639
randrange	-11.6644
spline	-11.6651
minus	-11.6654
libc	-11.6658
Sign	-11.6664
horizontal	-11.6666
likelihood	-11.6666
Authentication	-11.6666
Agent	-11.6668
Writer	-11.6679
hsl	-11.668
literal	-11.6682
IPv	-11.6684
▁care	-11.6694
touch	-11.6697
Recursively	-11.6723
Exists	-11.6723
▁utility	-11.6725
annotate	-11.6735
hrm	-11.6746
WORK	-11.6752
payment	-11.6752
EVENT	-11.6755
NONE	-11.6762
Look	-11.6779
Descriptor	-11.6781
Implement	-11.6781
sphinx	-11.6781
▁divmod	-11.6781
▁occurred	-11.6782
weak	-11.6786
but	-11.6788
▁who	-11.6792
Fixed	-11.6795
probe	-11.6799
▁':')	-11.6809
medium	-11.6809
▁WRITEME	-11.6809
▁'\\')	-11.6815
▁GEOS	-11.6815
PAR	-11.6821
filt	-11.6833
SCHEMA	-11.6838
probabilities	-11.6838
Origin	-11.6838
UPDATE	-11.6839
intpart	-11.6839
miss	-11.6849
sdk	-11.6853
10.0	-11.6858
workflow	-11.6859
ylabel	-11.6872
▁numerical	-11.6877
▁iterate	-11.688
mimetype	-11.6882
highlight	-11.6884
inclusive	-11.6896
(1024	-11.6903
developer	-11.6907
individual	-11.6917
transfer	-11.6917
paginate	-11.6926
Setup	-11.6929
fitness	-11.6933
alarm	-11.6933
▁getting	-11.6939
ology	-11.6947
UTC	-11.6947
pidfile	-11.6948
ACCEPT	-11.6955
software	-11.6955
challenge	-11.6955
▁everything	-11.6956
msvs	-11.6956
Two	-11.6956
▁stacklevel	-11.6964
superuser	-11.697
Exp	-11.6982
celery	-11.6984
Title	-11.6984
COLOR	-11.6985
ElementNode	-11.6987
nzb	-11.6988
▁pooling	-11.6988
logo	-11.699
Arg	-11.6994
[^\\	-11.6996
NotFoundError	-11.6996
webapp	-11.7008
relpath	-11.7009
▁generating	-11.7013
PROTOCOL	-11.7014
▁located	-11.7015
bandwidth	-11.7016
Axis	-11.703
stopped	-11.703
▁repeated	-11.7032
{0:	-11.704
Disable	-11.7043
dedent	-11.7045
paste	-11.7054
▁randomly	-11.706
epsilon	-11.7067
elapsed	-11.7073
▁better	-11.7073
Power	-11.7073
disconnect	-11.7076
mute	-11.7077
gpg	-11.7078
tracker	-11.7093
multigraph	-11.7096
[(1,	-11.7096
grp	-11.71
multiply	-11.7103
▁randfunc	-11.7103
▁functionality	-11.7111
▁translated	-11.7115
▁obtained	-11.7117
purchase	-11.7132
Attach	-11.7132
Credential	-11.7132
population	-11.7132
▁MySQL	-11.7132
▁transformed	-11.7133
NODE	-11.7135
▁DocTest	-11.7159
OPTIONS	-11.7162
categorical	-11.7162
executor	-11.7162
INIT	-11.7175
-0.	-11.7186
###	-11.7192
▁intended	-11.7192
Estimate	-11.7192
ATTR	-11.7195
ruby	-11.7201
gray	-11.7206
▁produced	-11.7212
estimate	-11.722
'-',	-11.7224
▁sending	-11.7236
clique	-11.7239
▁0.6	-11.7253
errcheck	-11.7255
SSLv	-11.7262
▁resolved	-11.7278
duplicate	-11.7282
tornado	-11.7282
gallery	-11.7282
▁calculation	-11.7282
swift	-11.7282
▁endrec	-11.7293
%20	-11.7305
Bucket	-11.7312
spatial	-11.7313
▁exceed	-11.7313
zoom	-11.7313
nzo	-11.7315
kern	-11.7323
▁normally	-11.7325
disc	-11.7339
community	-11.7343
IMAGE	-11.7343
good	-11.7345
▁observations	-11.7345
tagged	-11.7348
PRI	-11.735
Notification	-11.7354
city	-11.7361
stock	-11.7374
▁identical	-11.7377
lease	-11.7419
svg	-11.742
statuses	-11.7423
|\\	-11.743
Integral	-11.7435
spectral	-11.7435
BLOCK	-11.7436
mro	-11.7438
VO	-11.7438
bold	-11.7445
\')]	-11.7448
Public	-11.7465
OUTPUT	-11.7466
gaussian	-11.7466
ElementTree	-11.7466
111	-11.7467
flash	-11.7467
hue	-11.7472
plotly	-11.7475
3.3	-11.7475
▁previously	-11.7478
cib	-11.7487
processes	-11.7494
4.1	-11.7499
▁apiproxy	-11.7503
backslash	-11.7507
180	-11.7517
Func	-11.7517
contract	-11.752
Assign	-11.752
central	-11.7527
Available	-11.7527
Iterate	-11.7527
given	-11.7532
decl	-11.7534
pairwise	-11.7535
GIT	-11.7552
BACK	-11.7558
Algorithm	-11.7558
COOKIE	-11.7558
through	-11.7564
Symbol	-11.7564
follower	-11.7581
association	-11.7589
Adapt	-11.7589
403	-11.761
QUERY	-11.7621
Future	-11.7621
fingerprint	-11.7627
pandas	-11.7628
Standard	-11.7652
BytesIO	-11.7652
Condition	-11.7652
Dispatch	-11.7653
INPUT	-11.7653
friendly	-11.7654
Interval	-11.7659
website	-11.7667
under	-11.7668
ngettext	-11.7669
▁filled	-11.7671
▁looking	-11.7674
ENCODING	-11.7683
activities	-11.7683
distinct	-11.7685
memoize	-11.7689
LY	-11.7701
define	-11.7706
DEVICE	-11.7715
▁guarantee	-11.7715
montage	-11.7715
=0.5,	-11.7722
cmdline	-11.7734
Registry	-11.7747
STORE	-11.7747
ArgumentParser	-11.7747
extraglobs	-11.7748
tpl	-11.7766
modify	-11.7767
radian	-11.7768
contributor	-11.7778
Rational	-11.7779
esxi	-11.778
weekday	-11.7782
100000	-11.779
both	-11.7792
FILES	-11.7794
▁retrieved	-11.7797
design	-11.7805
▁Eq	-11.7809
ough	-11.781
▁AnsibleModule	-11.781
WORD	-11.781
Release	-11.7815
terminate	-11.782
between	-11.7821
Provider	-11.7836
[6]	-11.7837
inplace	-11.7839
broken	-11.7842
[(-2)]	-11.7842
▁purposes	-11.7845
▁IPython	-11.7845
that	-11.7852
{3}	-11.7856
vcs	-11.7865
graphic	-11.7872
COMMAND	-11.7874
Contact	-11.7874
srid	-11.7879
bottom	-11.7887
station	-11.7907
Row	-11.791
▁tried	-11.7916
measure	-11.792
detector	-11.7938
Stub	-11.7939
Common	-11.7939
▁decoding	-11.794
Need	-11.7944
customer	-11.7948
Leaf	-11.7971
▁Epochs	-11.7973
foobar	-11.7976
dispatcher	-11.7991
polar	-11.7994
subtract	-11.8
Console	-11.8003
Metric	-11.8003
principal	-11.8003
▁manually	-11.8004
consistency	-11.8008
RUN	-11.8014
notebook	-11.8019
unsigned	-11.8027
▁Details	-11.8036
contrast	-11.8036
Translate	-11.8036
flask	-11.8037
jpg	-11.8037
127.0.0.1	-11.8037
ADDR	-11.8039
PAGE	-11.805
terminated	-11.8059
SETTINGS	-11.8069
STATIC	-11.8069
mobile	-11.8069
▁skimage	-11.8069
stale	-11.8074
btn	-11.8075
▁decorate	-11.8079
hstack	-11.8084
hyper	-11.809
Flow	-11.8094
ANT	-11.8113
quar	-11.8124
numobj	-11.8134
pole	-11.8144
=0.0,	-11.815
tokenize	-11.8166
▁optimization	-11.8167
Similar	-11.8167
avatar	-11.8167
lyConfigured	-11.8167
Java	-11.8168
xenapi	-11.8168
fuzz	-11.8168
pointIndex	-11.8173
feat	-11.8176
IES	-11.8185
Namespace	-11.8191
Long	-11.8193
privilege	-11.8198
youtube	-11.8201
Position	-11.8201
NDArray	-11.8201
budget	-11.8201
movie	-11.8201
flocker	-11.8201
hang	-11.8204
Total	-11.8207
▁removing	-11.8208
exchange	-11.8215
shuffle	-11.8219
▁Optionally	-11.8226
Machine	-11.8234
Ignore	-11.8234
CREATE	-11.8234
TestSuite	-11.8234
Information	-11.8234
▁binascii	-11.8236
inside	-11.8245
explicit	-11.8255
persist	-11.8255
Null	-11.8264
intersect	-11.8265
atleast	-11.8267
▁thus	-11.8267
REGEX	-11.8267
itervalues	-11.8293
magnitude	-11.8301
Operator	-11.8301
torrent	-11.8301
POINTER	-11.8301
naming	-11.8303
384	-11.8305
([[1,	-11.8309
120	-11.8322
every	-11.8323
elasticsearch	-11.8334
synchronize	-11.8334
Shell	-11.8334
Alias	-11.8334
CONTENT	-11.8334
▁dnsnames	-11.8341
Regex	-11.8348
COL	-11.8352
Forward	-11.8353
observation	-11.8365
▁computing	-11.8368
mkstemp	-11.8368
grey	-11.8372
naive	-11.8374
▁wish	-11.8374
▁faster	-11.8384
Too	-11.8399
Minimum	-11.8402
traffic	-11.8402
▁underlying	-11.8402
Creating	-11.8402
(2*	-11.8403
monom	-11.8403
wav	-11.8406
launch	-11.8427
additional	-11.8427
ylim	-11.8433
Memory	-11.8435
▁taking	-11.8435
explanation	-11.8435
rpm	-11.845
errmsg	-11.8451
Init	-11.8461
[(-1):]	-11.8469
substitute	-11.8469
Shape	-11.847
keras	-11.8471
suggestion	-11.8472
▁checksum	-11.8485
footer	-11.8487
▁colorize	-11.8487
alphabet	-11.8498
little	-11.8504
ELLIPSIS	-11.8504
Crypto	-11.8504
▁kept	-11.8504
▁likely	-11.8504
Configure	-11.8505
▁expose	-11.8515
044	-11.852
\\.\\	-11.8528
Factor	-11.853
ServiceError	-11.8534
▁Improper	-11.8538
natural	-11.8538
bunch	-11.8539
▁initialization	-11.8541
▁NOTE	-11.8541
suggest	-11.857
123456789	-11.8572
ACTION	-11.8572
Distance	-11.8572
Shift	-11.8572
sympify	-11.8572
▁flattened	-11.8573
▁Specifie	-11.8574
approx	-11.8574
ZIP	-11.8575
▁1024	-11.8578
accessible	-11.859
tbl	-11.8606
PATTERN	-11.8607
Receive	-11.8607
▁2017.7.0	-11.8607
availability	-11.8607
▁correspond	-11.8607
▁few	-11.8608
▁modification	-11.8609
digit	-11.8616
positional	-11.8634
proxies	-11.8637
will	-11.8638
energy	-11.8641
divisor	-11.8641
scoring	-11.8642
7.0	-11.8645
Append	-11.8652
pkl	-11.8661
Prob	-11.8664
worksheet	-11.8669
Env	-11.8669
regular	-11.8672
INDEX	-11.8676
Iterator	-11.8676
DAY	-11.8676
instruction	-11.8678
succ	-11.8679
crash	-11.8683
padded	-11.8709
Face	-11.8709
OverflowError	-11.8711
▁Here	-11.8711
125	-11.8736
Force	-11.8739
permutation	-11.8744
Switch	-11.8746
pagination	-11.8746
Archive	-11.8746
inception	-11.8747
Got	-11.8755
'/')	-11.8758
999	-11.877
▁convention	-11.8781
Character	-11.8781
86_64	-11.8781
▁eigenvalue	-11.8782
resample	-11.879
viewpoint	-11.8812
silent	-11.8814
PRIVATE	-11.8816
Private	-11.8816
sickbeard	-11.8816
amqp	-11.8816
▁transparent	-11.8822
ArgumentError	-11.8826
▁unchanged	-11.8831
pretty	-11.8841
addHandler	-11.8845
▁operate	-11.8852
vmware	-11.8887
toggle	-11.8887
reconstruct	-11.8891
dead	-11.8892
crap	-11.8901
Dialog	-11.8922
permanent	-11.8923
▁LookupError	-11.8923
▁frozenset	-11.8923
Utility	-11.8923
Tuple	-11.8924
sure	-11.8935
8.0	-11.8939
declaration	-11.8958
Pickle	-11.8958
pyramid	-11.8958
monomial	-11.8959
ajax	-11.8959
Insert	-11.8959
RFC	-11.8961
When	-11.8961
trig	-11.8965
SIGN	-11.8971
sky	-11.898
2014	-11.8988
purpose	-11.8991
universal	-11.8994
temperature	-11.8994
minimize	-11.8997
▁acceptable	-11.9002
tructuring	-11.9003
singleton	-11.9006
appengine	-11.901
Axes	-11.9016
▁colormap	-11.9023
Category	-11.903
Mixed	-11.903
deletion	-11.9031
Fraction	-11.9031
including	-11.9034
Route	-11.9065
termination	-11.9066
distorted	-11.9066
summarize	-11.9066
COUNT	-11.9066
▁defining	-11.907
reject	-11.9071
▁That	-11.9072
▁extmod	-11.9076
Place	-11.9102
camera	-11.9102
confirmation	-11.9106
Grid	-11.911
EncodeError	-11.9114
Rate	-11.9116
ITY	-11.9118
trim	-11.9121
stddev	-11.9122
ASN	-11.9136
Binary	-11.9139
High	-11.9142
linter	-11.9142
exponent	-11.9145
▁UnicodeError	-11.9154
Free	-11.9156
facebook	-11.9158
NUMBER	-11.9175
amplitude	-11.9175
▁BoxList	-11.9175
social	-11.9176
▁mix	-11.9178
CDL	-11.9185
placement	-11.9187
2013	-11.9195
cython	-11.9212
▁undirected	-11.9215
orient	-11.9216
scroll	-11.9218
paren	-11.9228
sink	-11.9236
PKCS	-11.9249
edProcessError	-11.9249
azure	-11.925
▁highest	-11.9252
000000000	-11.9252
gmtime	-11.9272
serialization	-11.9273
Counter	-11.9282
LOCK	-11.9284
definite	-11.9284
Identifier	-11.9286
▁derived	-11.9286
▁enforce	-11.9287
reraise	-11.9292
could	-11.9295
background	-11.9297
Unexpected	-11.9303
Cert	-11.9307
Mask	-11.9311
STREAM	-11.9323
convolve	-11.9323
junk	-11.9323
('\\'	-11.9327
customize	-11.9339
Initial	-11.9343
Deprecated	-11.936
spectrum	-11.936
IZE	-11.936
numerator	-11.936
conditional	-11.9371
GLOBAL	-11.9397
people	-11.9397
Lookup	-11.9399
(("'%	-11.94
equality	-11.9405
crud	-11.9407
Desc	-11.9421
decompress	-11.9432
'127.0.0.1'	-11.9433
-8859-1	-11.9434
EXISTS	-11.9434
pivot	-11.9435
normcase	-11.9445
LOGIN	-11.945
backoff	-11.9454
Strip	-11.9471
ESCAPE	-11.9472
invoice	-11.9472
minibatch	-11.9473
Follow	-11.9476
Signal	-11.9476
Cipher	-11.9477
▁linkage	-11.9479
▁May	-11.9484
fallback	-11.9486
Trans	-11.9499
TLS	-11.9508
warp	-11.9513
implemented	-11.9525
Case	-11.954
00:00	-11.9548
FEATURE	-11.9548
punctuation	-11.9548
evaluator	-11.9548
violation	-11.9586
▁\*\*	-11.9586
▁providing	-11.9586
descendant	-11.9586
urlunparse	-11.9586
winreg	-11.96
equiv	-11.9605
imshow	-11.961
9.0	-11.9615
DETAIL	-11.9624
deprecation	-11.9624
▁recognized	-11.9624
Attr	-11.9625
Expand	-11.9626
[:4]	-11.9627
openssl	-11.965
Deploy	-11.9662
scatter	-11.9662
glfw	-11.9662
▁paper	-11.9662
timing	-11.9666
spider	-11.9666
▁neither	-11.9667
Tries	-11.9668
vgg	-11.9669
▁How	-11.967
committer	-11.9689
grafana	-11.9701
▁executing	-11.9701
Evaluate	-11.9701
Member	-11.9701
▁CSV	-11.9701
mnist	-11.9701
NEW	-11.9707
matrices	-11.972
penalty	-11.9739
General	-11.9739
expiry	-11.9739
exempt	-11.974
Enter	-11.974
Vary	-11.9768
Duplicate	-11.9778
▁('-'	-11.9779
OPEN	-11.9781
indptr	-11.9787
MSG	-11.9796
mpstate	-11.9802
blah	-11.9818
invite	-11.9821
2048	-11.9821
Analyze	-11.9856
Snapshot	-11.9856
MULTI	-11.9856
shadow	-11.9856
▁assuming	-11.9856
Hook	-11.9857
desired	-11.9879
chord	-11.9891
Bound	-11.9895
Summary	-11.9895
▁Typical	-11.9895
hdu	-11.9899
scribe	-11.9903
▁markup	-11.9904
changelog	-11.9913
Retry	-11.9925
▁operating	-11.9935
▁overridden	-11.9935
▁effective	-11.9937
▁memcache	-11.9938
tanh	-11.9949
resume	-11.9962
Syntax	-11.997
▁greenlet	-11.9974
Publish	-11.9974
Which	-11.9974
abbrev	-11.9974
Edge	-11.9975
▁invoked	-11.9975
dark	-11.9977
mountpoint	-11.9984
figsize	-11.9988
OrderedDict	-12
provided	-12
wide	-12.0007
JPEG	-12.0014
BACKEND	-12.0014
▁cropped	-12.0015
ABC	-12.0015
Right	-12.0018
freeze	-12.0021
windll	-12.0026
Reactor	-12.0054
uck	-12.0063
▁namedtuple	-12.0073
Traceback	-12.0082
dont	-12.0087
Infinity	-12.0094
Trigger	-12.0094
▁increase	-12.0094
Hdr	-12.0095
CLIENT	-12.0114
density	-12.0122
interact	-12.0133
REDIRECT	-12.0134
ZipFile	-12.0134
routing	-12.014
▁approximate	-12.0158
Collect	-12.0172
Produce	-12.0174
▁expressed	-12.0174
▁regardless	-12.0174
▁subsequent	-12.0174
envelope	-12.0174
provision	-12.0174
slope	-12.0175
▁consumed	-12.0175
pitch	-12.0175
▁allocated	-12.0175
Program	-12.0175
leftmost	-12.0176
extractor	-12.0183
gender	-12.0184
▁varkw	-12.0185
Episode	-12.0215
Activation	-12.0215
GROUP	-12.0215
▁expansion	-12.0215
Prepare	-12.0215
representation	-12.0251
Properties	-12.0255
Quantity	-12.0255
increasing	-12.0255
discount	-12.0266
Help	-12.0289
cookiejar	-12.0289
banner	-12.0296
scratch	-12.0296
Absolute	-12.0296
BotoServerError	-12.0296
FAILURE	-12.0296
adjacency	-12.0296
quadratic	-12.0296
=0.001	-12.0296
DiGraph	-12.0296
LINK	-12.0296
FILETYPE	-12.0315
crit	-12.032
Signature	-12.0337
arxiv	-12.0337
[3:]	-12.0337
badge	-12.0339
EPS	-12.035
▁prof	-12.0376
CSRF	-12.0378
NFFT	-12.0378
variation	-12.0379
SAME	-12.038
▁privileges	-12.0382
▁plane	-12.0386
hole	-12.0395
Specific	-12.0406
Weight	-12.0407
greater	-12.0414
Geometry	-12.0419
vault	-12.042
restriction	-12.042
attack	-12.042
stroke	-12.0448
SESSION	-12.0461
SYSTEM	-12.0461
StreamHandler	-12.0462
consume	-12.0489
\'\'\'	-12.0503
Left	-12.0503
[0:2]	-12.0504
DateTime	-12.0504
▁dask	-12.0515
Datastore	-12.0542
PROCESS	-12.0545
contiguous	-12.0545
assumptions	-12.0545
intermediate	-12.0545
hudson	-12.0545
Parent	-12.0545
changing	-12.0545
▁GUI	-12.0553
Move	-12.0586
CGI	-12.0588
ConfigParser	-12.059
else	-12.0596
▁identify	-12.0597
topology	-12.0601
explain	-12.0611
prior	-12.0627
kubernetes	-12.0629
Transfer	-12.0629
UNIX	-12.0629
DICT	-12.0629
omega	-12.0629
notifier	-12.0629
Master	-12.0629
getaddrinfo	-12.0629
Disk	-12.063
Arn	-12.0632
CertificateError	-12.064
nonlinear	-12.0641
▁199	-12.065
xmlns	-12.0654
hadoop	-12.0671
Video	-12.0671
Walk	-12.0671
clade	-12.0672
Represent	-12.0676
cacert	-12.0683
guide	-12.0705
covered	-12.0707
Album	-12.0714
MEDIA	-12.0714
throttle	-12.0714
Driver	-12.0714
Regression	-12.0714
nginx	-12.0714
Patch	-12.0714
Expire	-12.0714
▁stash	-12.0717
0.0.0.0	-12.0722
Util	-12.0727
DBMS	-12.0733
facecolor	-12.0754
Override	-12.0756
hexlify	-12.0756
Lambda	-12.0756
difficult	-12.0756
interrupt	-12.0756
overlay	-12.0757
ADMIN	-12.0757
Deserialize	-12.076
SNI	-12.0761
delimiter	-12.0761
TRANS	-12.0766
disposition	-12.0772
successful	-12.0782
EMPTY	-12.0799
ForeignKey	-12.0799
mandatory	-12.0799
semantic	-12.0799
▁applicable	-12.0799
Relative	-12.0799
cql	-12.0803
versioneer	-12.0807
sku	-12.0812
localize	-12.0835
significant	-12.0842
IGNORECASE	-12.0842
▁identified	-12.0842
AGENT	-12.0843
Support	-12.0846
retrieve	-12.0846
Fail	-12.0873
reachable	-12.0883
Success	-12.0886
▁raising	-12.0886
Analysis	-12.0886
▁regularization	-12.0888
cube	-12.0888
▁bigip	-12.0891
Mean	-12.0893
outcome	-12.0904
SMTP	-12.0929
Problem	-12.0929
knowledge	-12.0929
▁synset	-12.093
VDI	-12.093
vrouter	-12.093
▁ndimage	-12.0932
▁Amazon	-12.0973
Ticket	-12.0973
Disposition	-12.0973
Average	-12.0973
dwi	-12.0977
HASH	-12.0977
Drop	-12.0989
vmadm	-12.1007
▁2016.11.0	-12.1017
▁uppercase	-12.102
tune	-12.102
▁determin	-12.1031
FLAG	-12.1053
assemble	-12.1061
copies	-12.1061
bookmark	-12.1065
alternative	-12.107
qubit	-12.1079
Sys	-12.1081
friend	-12.1102
CHANGE	-12.1105
Branch	-12.1105
proposal	-12.1105
delimited	-12.1106
▁bond	-12.1106
Repeat	-12.1106
temporal	-12.1106
focus	-12.1107
Requirement	-12.1108
residual	-12.1115
general	-12.1115
affine	-12.115
joe	-12.115
fqdn	-12.115
dvi	-12.1152
reportflags	-12.1154
kappa	-12.116
authorize	-12.118
tech	-12.1184
openshift	-12.1187
physics	-12.1194
VIEW	-12.1194
sequential	-12.1194
▁tamper	-12.1194
Skipping	-12.1195
Transport	-12.1197
▁depend	-12.1202
0.75	-12.123
transcript	-12.1239
▁PEP	-12.1239
DOWN	-12.1239
skew	-12.1239
Menu	-12.124
▁prefer	-12.1252
▁5.0	-12.1263
construct	-12.1283
Visual	-12.1284
▁Instead	-12.1284
babel	-12.1284
▁latter	-12.1284
Complete	-12.1284
123456	-12.1285
▁shlex	-12.1285
mutate	-12.1297
POINT	-12.1329
Scalar	-12.1329
ORDER	-12.1329
XDG	-12.133
brace	-12.1331
Trace	-12.1374
Microsoft	-12.1375
▁MediaPlayer	-12.1375
▁smallest	-12.1378
▁renamed	-12.1379
PAREN	-12.141
guard	-12.1411
hypervisor	-12.142
tunnel	-12.142
Digest	-12.142
hextet	-12.1421
retention	-12.1422
▁occurrences	-12.1423
existent	-12.145
prox	-12.1465
IGNORE	-12.1466
Button	-12.1466
assertEqual	-12.1466
▁decomposition	-12.1466
journal	-12.1466
INVALID	-12.1468
▁usable	-12.147
ugettext	-12.1487
brain	-12.1495
clipped	-12.1501
disp	-12.1508
FIRST	-12.1512
CURRENT	-12.1512
POSIX	-12.1512
neutron	-12.1512
▁twice	-12.1512
terminator	-12.1512
[:(-2)]	-12.1512
NAMESPACE	-12.1512
coach	-12.1513
ROLE	-12.1515
▁submission	-12.1517
insensitive	-12.1529
bokeh	-12.1559
surrogate	-12.1559
UNKNOWN	-12.1559
compound	-12.1559
▁NumPy	-12.1559
▁Assume	-12.1559
8080	-12.1564
Locator	-12.1591
STDOUT	-12.1605
SUCCESS	-12.1605
stanza	-12.1605
Malformed	-12.1605
carrier	-12.1605
perspective	-12.1605
Vertex	-12.1605
Learn	-12.1606
inheritance	-12.1607
USERNAME	-12.161
Final	-12.1619
android	-12.162
Definition	-12.1652
Platform	-12.1652
sibling	-12.1652
ANCE	-12.1652
▁plotting	-12.1656
lemma	-12.166
classifier	-12.1674
skipped	-12.1677
accumulate	-12.1699
Computation	-12.1699
▁fcntl	-12.1699
jboss	-12.1699
Scope	-12.17
bility	-12.1716
corner	-12.1722
execution	-12.1722
Const	-12.1726
ENGINE	-12.1746
Middleware	-12.1746
capabilities	-12.1746
traversal	-12.1746
Revision	-12.1746
▁benchmark	-12.1746
blk	-12.1752
depends	-12.1771
Commit	-12.1771
something	-12.1772
exercise	-12.1793
Statistic	-12.1793
▁efficient	-12.1793
Negative	-12.1793
REMOTE	-12.1794
cinder	-12.1795
Static	-12.182
secondary	-12.1835
dialect	-12.1841
Derivation	-12.1841
▁precedence	-12.1841
Convolution	-12.1841
MSVS	-12.1841
closure	-12.1841
initiator	-12.1841
deterministic	-12.1841
FILENAME	-12.1846
cosmo	-12.1849
UNIT	-12.1852
MNIST	-12.1889
Campaign	-12.1889
Translation	-12.1889
shipping	-12.1889
intensity	-12.1889
decision	-12.1889
PATCH	-12.1889
▁dropped	-12.189
▁keepdims	-12.1891
tensorflow	-12.19
UNICODE	-12.1937
entrance	-12.1937
Font	-12.1939
InputData	-12.194
udp	-12.1944
iptables	-12.1953
stylesheet	-12.1966
▁comb	-12.1967
ANSI	-12.1976
observed	-12.1985
▁seealso	-12.1985
homogeneous	-12.1985
mkdtemp	-12.1985
TEMP	-12.1987
▁however	-12.1987
dimshuffle	-12.1988
Must	-12.2016
fitted	-12.2029
Epoch	-12.2031
INSERT	-12.2034
ambiguous	-12.2034
YYYY	-12.2034
Successfully	-12.2034
▁among	-12.2034
ckpt	-12.2035
Clip	-12.2035
Dump	-12.2077
Pipeline	-12.2083
reservation	-12.2083
agnostic	-12.2083
Binding	-12.2083
rcParams	-12.2094
Poly	-12.2115
occurrence	-12.2129
SECRET	-12.2132
Authenticate	-12.2132
Before	-12.2132
quaternion	-12.2132
▁behaviour	-12.2132
▁inferred	-12.2132
weakref	-12.2135
Conf	-12.2163
9999	-12.2169
ortho	-12.2175
BUILD	-12.2181
Threshold	-12.2181
▁replacing	-12.2181
Chain	-12.2181
LSTM	-12.2181
Height	-12.2181
mako	-12.2182
Sym	-12.2197
1,2,3	-12.22
+)\\	-12.2215
immediate	-12.223
Composite	-12.223
Activity	-12.223
Suffix	-12.223
BYTE	-12.223
INSTALLED	-12.2231
▁UserRPC	-12.2232
outlier	-12.2236
calculate	-12.2267
stochastic	-12.228
sanity	-12.2281
▁psutil	-12.2281
▁sickrage	-12.233
▁accurate	-12.233
Increment	-12.233
dTemporaryFile	-12.233
teacher	-12.233
millis	-12.2337
unstable	-12.2363
suppress	-12.2369
advanced	-12.238
cookiecutter	-12.238
velocity	-12.238
CUDA	-12.238
receipt	-12.238
childNodes	-12.238
Book	-12.2381
Permutation	-12.2381
PARAM	-12.2381
alphanumeric	-12.2406
workbook	-12.2411
abort	-12.2421
logged	-12.2421
HANDLER	-12.2431
▁JavaScript	-12.2431
analytic	-12.2431
Delta	-12.2431
▁sense	-12.2432
terior	-12.2444
ADDRESS	-12.2482
latitude	-12.2482
CHECK	-12.2482
LEVEL	-12.2482
PermissionDenied	-12.2482
longitude	-12.2482
Reverse	-12.2482
[0-9]+	-12.2482
scanner	-12.2483
Keep	-12.2484
SSLContext	-12.2526
Area	-12.2533
Frequency	-12.2533
exclusion	-12.2533
thousands	-12.2533
External	-12.2533
TARGET	-12.2533
▁MUST	-12.2533
Body	-12.2533
orphan	-12.2534
renewal	-12.2534
Solve	-12.2544
cherrypy	-12.2577
Monitor	-12.2584
you	-12.2619
SUPPORTED	-12.2635
▁Possible	-12.2635
dollar	-12.2635
craft	-12.2635
5849	-12.2637
tidy	-12.2664
▁treat	-12.2675
aka	-12.2676
PROJECT	-12.2687
cumulative	-12.2687
excluding	-12.2687
visibility	-12.2687
yellow	-12.2687
Gradient	-12.2687
▁satisfy	-12.2739
brightness	-12.2739
cumsum	-12.2739
ENTITY	-12.274
worst	-12.274
Django	-12.2789
coupon	-12.2792
Period	-12.2792
▁nesting	-12.2792
contour	-12.2793
FROM	-12.2843
CONNECT	-12.2844
ACCESS	-12.2844
Forbidden	-12.2844
MATCH	-12.2844
repositories	-12.2844
▁earlier	-12.2844
▁neighborhood	-12.2844
▁easier	-12.2844
▁matvec	-12.2844
GeometryOutput	-12.2845
▁analog	-12.2845
CPU	-12.2872
[7]	-12.2879
euro	-12.2883
Cryptodome	-12.2897
fabric	-12.2897
BeautifulSoup	-12.2897
adaptive	-12.2897
LDAP	-12.2897
Polynomial	-12.2897
[:(-3)]	-12.2897
residue	-12.2898
assoc	-12.2902
EEXIST	-12.295
marshal	-12.295
resolv	-12.295
corrupt	-12.2951
qemu	-12.2951
trunk	-12.2954
isolate	-12.2954
revoke	-12.2962
quat	-12.2997
Fragment	-12.3004
Derivative	-12.3004
▁SkyCoord	-12.3004
spherical	-12.3004
▁mutually	-12.3004
Issue	-12.3004
Structure	-12.3004
sentinel	-12.3004
▁Numpy	-12.3004
RuntimeError	-12.3006
ounce	-12.3044
synonym	-12.3058
illegal	-12.3058
pylint	-12.3058
explore	-12.3059
campaign	-12.3061
CONST	-12.307
▁192.168.	-12.3103
▁65535	-12.3112
eigen	-12.3112
choose	-12.3116
galaxy	-12.3166
potentially	-12.3166
Alternative	-12.3166
[(-2):]	-12.3166
flake	-12.3167
Push	-12.3167
▁vbd	-12.3168
GNU	-12.317
incident	-12.3172
either	-12.3221
participant	-12.3221
lifetime	-12.3221
aggregation	-12.3221
▁cgutils	-12.3221
▁3600)	-12.3221
1.2.3	-12.3231
Arch	-12.3232
Verifie	-12.3233
DESC	-12.3244
Coord	-12.3245
Serial	-12.3264
SHARED	-12.3276
English	-12.3276
Advance	-12.3276
cyclic	-12.3276
cifar	-12.3276
overlapping	-12.3277
talk	-12.3286
PASS	-12.3296
1;37	-12.3331
vehicle	-12.3331
=0.0001	-12.3331
Pillar	-12.3331
▁eightBit	-12.3331
Canvas	-12.3331
Hyper	-12.3331
KEYWORD	-12.3332
CPP	-12.3334
sizeEndCentDir	-12.3386
brief	-12.3386
▁reductor	-12.3386
▁Markdown	-12.3386
▁'\\\\')	-12.3391
temporary	-12.3397
Inference	-12.3442
conjugate	-12.3442
dummies	-12.3442
Encrypt	-12.3442
Combine	-12.3442
recipe	-12.345
browse	-12.3451
NORMALIZE	-12.3499
▁tearDown	-12.3499
Component	-12.3499
Cursor	-12.3499
▁astroid	-12.3499
▁improve	-12.3499
qualities	-12.3509
EXTENSION	-12.3555
LOCATION	-12.3555
MovedItems	-12.3555
SEPARATOR	-12.3555
▁slightly	-12.3555
WSGI	-12.3569
plug	-12.36
Indicate	-12.3612
▁profitbricks	-12.3612
Spatial	-12.3612
comparison	-12.3628
Destroy	-12.3669
▁Consul	-12.3669
RESULT	-12.3669
▁therefore	-12.3669
trivial	-12.3669
bilinear	-12.3671
determine	-12.3686
ephemeral	-12.3726
EXCEPTION	-12.3726
thrift	-12.3726
Chunk	-12.3726
chown	-12.3727
ohlc	-12.3727
tooltip	-12.3728
Square	-12.3745
SUBJECT	-12.3784
Prediction	-12.3784
World	-12.3784
Smart	-12.3784
Scaling	-12.3784
sectname	-12.3786
fulfil	-12.3788
Google	-12.3804
-------------	-12.3819
generalized	-12.3831
ALLOWED	-12.3842
Regular	-12.3842
CHUNK	-12.3842
SHORT	-12.3844
ridge	-12.3891
LABEL	-12.3901
Schedule	-12.3901
WHITESPACE	-12.3901
▁identifies	-12.3901
ownership	-12.3901
qutebrowser	-12.3901
WRITE	-12.3901
jitter	-12.3901
jump	-12.3903
deny	-12.3913
possibly	-12.3923
trade	-12.3928
Temporary	-12.396
▁TensorFlow	-12.396
sopel	-12.3961
borrow	-12.3962
timegm	-12.3963
RETURN	-12.4019
ENOENT	-12.4019
Mobile	-12.4019
▁necessarily	-12.4019
exploit	-12.4019
▁Keras	-12.4019
Polygon	-12.4019
▁[(-1)	-12.4055
cassandra	-12.4078
▁themselves	-12.4078
▁BatchJob	-12.4078
Dense	-12.4079
birth	-12.4079
magenta	-12.4079
pulse	-12.408
▁precede	-12.4096
DJANGO	-12.4138
Invoke	-12.4138
MONTH	-12.4138
▁development	-12.4138
teardown	-12.4138
CRLF	-12.4139
trait	-12.4142
polynomial	-12.4167
▁retained	-12.4199
▁quantile	-12.4199
Watch	-12.4199
▁SkipTest	-12.4199
Slice	-12.4199
▁feconf	-12.4199
xmpp	-12.4202
contain	-12.4212
BEGIN	-12.4259
ENTRY	-12.4259
restApiId	-12.4259
communication	-12.4259
emporarily	-12.4259
▁2014.7.0	-12.4259
▁invocation	-12.4259
Ratio	-12.4259
ellipse	-12.4259
Guess	-12.4259
daily	-12.4259
profiling	-12.4259
▁decide	-12.4265
slack	-12.4278
drac	-12.4311
recursion	-12.432
MARKER	-12.432
heuristic	-12.432
Dimension	-12.432
cartesian	-12.432
decreasing	-12.432
▁Because	-12.432
asanyarray	-12.432
tutorial	-12.432
centroid	-12.432
DISK	-12.432
Bearer	-12.432
quopri	-12.4381
Suppress	-12.4381
Execution	-12.4439
Progress	-12.4443
cascade	-12.4443
Scenario	-12.4443
Gamma	-12.4443
brew	-12.4447
identifying	-12.449
Categorical	-12.4505
FAILED	-12.4505
continuation	-12.4505
fourier	-12.4516
/{0}/	-12.4528
FUNCTION	-12.4568
twitter	-12.4568
Coordinate	-12.4568
contribution	-12.4568
▁augment	-12.4568
sentiment	-12.4568
chassis	-12.4569
SVG	-12.457
introspection	-12.4631
Anonymous	-12.4631
Studio	-12.4631
4294967295	-12.4631
65536	-12.4631
Subject	-12.4631
Truncate	-12.4631
newOwnerDocument	-12.4631
